telecommunications
telecommunication
interdisciplinary
autobiographical
administratively
intercontinental
northamptonshire
misunderstanding
unconstitutional
characterization
disqualification
responsibilities
entrepreneurship
enthusiastically
transformations
accomplishments
anthropological
administrations
interpretations
instrumentalist
internationally
instrumentation
implementations
intercollegiate
buckinghamshire
straightforward
standardization
notwithstanding
nottinghamshire
congratulations
classifications
cinematographer
characteristics
differentiation
dissatisfaction
pharmaceuticals
recommendations
representations
revolutionaries
representatives
electrification
experimentation
environmentally
electromagnetic
gloucestershire
transportation
transformation
overwhelmingly
organizational
archaeological
accountability
accomplishment
accommodations
administrators
archaeologists
administrative
apprenticeship
affectionately
aforementioned
administration
authentication
advertisements
anthropologist
appropriations
arrondissement
internationals
interpretation
investigations
irregularities
infrastructure
implementation
identification
internationale
worcestershire
fortifications
superstructure
sustainability
specifications
specialization
systematically
simultaneously
superintendent
northumberland
neighbourhoods
municipalities
meteorological
mathematicians
multiplication
unsuccessfully
unconventional
unincorporated
communications
correspondence
constituencies
congregational
configurations
concentrations
constitutional
characteristic
constantinople
cinematography
contemporaries
classification
considerations
cambridgeshire
collaborations
coincidentally
czechoslovakia
cardiovascular
leicestershire
demonstrations
distinguishing
discrimination
decommissioned
disappointment
differentiated
philanthropist
professionally
pharmaceutical
representation
representative
reorganization
redistribution
reinforcements
reorganisation
rehabilitation
reconnaissance
responsibility
reconciliation
recommendation
reconstruction
ecclesiastical
establishments
electronically
geographically
groundbreaking
qualifications
technological
transcription
traditionally
transatlantic
transmissions
theoretically
organisations
organizations
opportunities
alternatively
authoritative
acquaintances
appropriately
archeological
assassination
administrator
acknowledging
announcements
accompaniment
advertisement
approximation
abnormalities
accessibility
accommodation
accreditation
approximately
architectural
autobiography
authoritarian
authorization
administering
archaeologist
automatically
intentionally
independently
industrialist
investigators
introductions
inspirational
intersections
international
institutional
inexperienced
improvisation
instructional
insignificant
installations
interceptions
incorporation
invertebrates
investigation
investigative
interrogation
illustrations
inappropriate
internacional
instinctively
intellectuals
interventions
inadvertently
investigating
incorporating
weightlifting
wolverhampton
hydroelectric
horticultural
hertfordshire
homosexuality
headquartered
fortification
functionality
featherweight
fragmentation
fundamentally
baccalaureate
biotechnology
strategically
sarcastically
stabilization
straightening
sophisticated
schizophrenia
substantially
semiconductor
specification
strengthening
supplementary
spontaneously
significantly
staffordshire
neighborhoods
nationalities
neighbourhood
morphological
manufacturers
manufacturing
misunderstood
miscellaneous
multinational
middlesbrough
mediterranean
mathematician
modifications
multicultural
modernization
manifestation
massachusetts
mitochondrial
uncomfortably
unfortunately
understanding
unprecedented
unpredictable
uncomfortable
undergraduate
consolidation
communication
confederation
chronological
collaborators
constellation
commemorating
controversies
complications
contamination
concentration
contemplating
comparatively
controversial
counterattack
compatibility
concentrating
constructions
contradiction
collaborative
commemorative
choreographer
championships
contradictory
civilizations
commissioners
conversations
contributions
congressional
circumstances
correspondent
certification
consideration
congregations
choreographed
collaboration
conservatives
communicating
comprehension
configuration
commissioning
computational
compassionate
consciousness
complementary
characterized
commemoration
corresponding
collaborating
characterised
conservatoire
comprehensive
confrontation
liechtenstein
jurisprudence
jurisdictions
justification
dissemination
disadvantaged
demonstrating
deteriorating
deterioration
distinguished
distributions
documentation
distinguishes
disagreements
documentaries
differentiate
disappearance
developmental
demonstration
disappointing
determination
decomposition
demonstrators
denominations
predominantly
progressively
participating
professorship
physiological
personalities
practitioners
parliamentary
photographers
philanthropic
pronunciation
perpendicular
psychological
psychologists
precipitation
professionals
proliferation
privatization
participation
possibilities
philosophical
presentations
restructuring
reunification
relationships
reinforcement
revolutionary
retrospective
redevelopment
reconstructed
refurbishment
expeditionary
extraordinary
experimenting
environmental
entertainment
entrepreneurs
embarrassment
establishment
encouragement
enlightenment
exceptionally
effectiveness
grandchildren
globalization
granddaughter
gubernatorial
gravitational
vulnerability
quartermaster
quarterfinals
qualification
thanksgiving
transitional
transactions
transitioned
thoughtfully
transferring
testosterone
transmission
transforming
transylvania
transparency
thoroughbred
thessaloniki
transformers
turkmenistan
translations
technologies
transmitters
tuberculosis
transmitting
temperatures
transporting
organization
overshadowed
organisation
occasionally
observations
orchestrated
outstretched
overwhelming
occupational
optimization
appointments
additionally
abolitionist
aggressively
associations
administered
accommodated
applications
alternatives
anticipation
acquisitions
anthropology
amalgamation
abbreviation
architecture
assassinated
agricultural
arrangements
anticipating
acquaintance
aristocratic
acknowledged
acceleration
appreciation
astronomical
accelerating
authenticity
appropriated
accompanying
availability
apprehension
astonishment
achievements
accomplished
aeronautical
assimilation
acknowledges
announcement
accidentally
accumulation
intellectual
intimidating
indifference
investigated
independents
inaccessible
illustrating
installation
identifiable
impoverished
instructions
interference
intelligence
introduction
intermittent
insufficient
incorporated
implications
interviewing
intimidation
improvements
inflammation
independence
incarcerated
irresistible
intermediate
illumination
infringement
imprisonment
illuminating
indianapolis
interruption
insurrection
interrupting
investigates
incorporates
interspersed
implementing
introductory
intervention
inconsistent
indefinitely
investigator
individually
interpreting
interactions
inauguration
inflammatory
intersection
illegitimate
intersecting
interception
incompatible
institutions
invitational
illustration
increasingly
inscriptions
instrumental
williamsburg
welterweight
warwickshire
wrestlemania
humanitarian
hierarchical
historically
headquarters
horizontally
huddersfield
handkerchief
hillsborough
hypothetical
highlighting
hospitalized
heterosexual
frankenstein
fingerprints
firefighters
facilitating
fluctuations
biochemistry
bedfordshire
broadcasters
biodiversity
breakthrough
broadcasting
biographical
bibliography
breaststroke
##orestation
##ropriation
##filtration
subcontinent
surroundings
storytelling
spectroscopy
similarities
supermarkets
substitution
supplemented
successively
subsidiaries
straightened
subterranean
supplemental
satisfactory
specialising
structurally
suspiciously
screenwriter
southwestern
spokesperson
scandinavian
supernatural
specializing
subsequently
subcommittee
southernmost
spirituality
successfully
satisfaction
shareholders
shipbuilding
synthesizers
specifically
standardized
simultaneous
southeastern
surprisingly
subscription
surveillance
synchronized
sufficiently
significance
strengthened
subconscious
stakeholders
subdivisions
saskatchewan
sociological
scholarships
northernmost
neighborhood
nevertheless
nomenclature
neighbouring
newfoundland
neuroscience
northwestern
notification
neoclassical
necessitated
nationalists
northeastern
negotiations
neurological
manipulating
mythological
missionaries
municipality
metropolitan
mathematical
mysteriously
manipulation
michelangelo
mobilization
manufacturer
manufactures
manufactured
metaphysical
modification
middleweight
materialized
measurements
mechanically
unofficially
unsuccessful
unauthorized
universities
unbelievable
unacceptable
unmistakable
unreasonable
unexpectedly
unidentified
unemployment
coordination
constituents
civilization
constructing
concurrently
compositions
calculations
corporations
cheerleading
constructive
chemotherapy
consecration
contemporary
conservation
collaborated
celebrations
conventional
consequently
constabulary
cancellation
consistently
consultation
commencement
circumstance
catastrophic
commissioned
christianity
compensation
combinations
contribution
commissioner
cerambycidae
conservative
correctional
connectivity
coordinating
corresponded
capabilities
cosmopolitan
commonwealth
certificates
continuation
compartments
commentators
commercially
collectively
colonization
constitution
collaborator
consolidated
congregation
confederates
continuously
colloquially
chesterfield
consequences
consultative
commentaries
czechoslovak
confirmation
conscription
considerable
conservatory
communicated
commemorated
complimented
contributors
construction
counterparts
condemnation
coefficients
constituency
concentrated
conversation
choreography
conditioning
contributing
christchurch
confidential
championship
commemorates
conglomerate
contaminated
commendation
considerably
compilations
competitions
contemplated
lincolnshire
laboratories
legislatures
longitudinal
libertadores
jacksonville
johannesburg
jurisdiction
disagreement
dissatisfied
dissertation
distinctions
disappointed
disconnected
domestically
designations
destinations
distribution
differential
demonstrates
displacement
demonstrated
distributors
demographics
disabilities
downloadable
deliberately
descriptions
distributing
deteriorated
disqualified
developments
dramatically
denomination
departmental
disciplinary
disappearing
disturbances
dictatorship
disadvantage
difficulties
discontinued
protectorate
proportional
predecessors
partnerships
purification
presentation
photographic
perpetrators
preparations
paramilitary
pennsylvania
presidential
particularly
peterborough
protagonists
pornographic
penitentiary
practitioner
professional
participants
presbyterian
perspectives
photographer
productivity
palestinians
participated
prostitution
photographed
postgraduate
psychologist
philanthropy
proclamation
performances
phylogenetic
philosophers
prescription
preservation
philadelphia
psychiatrist
principality
publications
philharmonic
postdoctoral
periodically
posthumously
participates
peacekeeping
kindergarten
reintroduced
representing
restrictions
reproductive
redesignated
reproduction
respectively
rediscovered
relinquished
requirements
reservations
relationship
resurrection
recognizable
registration
replacements
ratification
refrigerator
recreational
receptionist
regeneration
environments
economically
electrically
examinations
extinguished
effortlessly
entertaining
entrepreneur
experimented
experiencing
emancipation
evolutionary
encompassing
expectations
establishing
enthusiastic
exploitation
experimental
encyclopedia
embarrassing
explanations
expenditures
gesellschaft
genealogical
geographical
governmental
grandparents
verification
questionable
quarterfinal
quantitative
transitions
theoretical
tentatively
transgender
transported
theological
tributaries
townspeople
transcribed
territories
traditional
topographic
translation
temperature
therapeutic
temperament
threatening
tchaikovsky
terrestrial
terminology
translating
translucent
transformed
transferred
theologians
translators
terminating
transaction
treacherous
topological
trafficking
tortricidae
temporarily
transparent
technicians
termination
territorial
technically
tournaments
transmitter
transmitted
observatory
overlapping
operational
orientation
oxfordshire
occurrences
outstanding
obstruction
observation
obligations
occupations
overwhelmed
outnumbered
opportunity
originating
overlooking
arbitration
azerbaijani
abandonment
appreciated
ambassadors
australians
articulated
atmospheric
aerodynamic
advertising
afghanistan
alternating
alternative
affirmative
affiliation
allegations
alternately
anniversary
astronomers
accompanied
approaching
appropriate
apocalyptic
arrangement
astonishing
appearances
accumulated
archdiocese
acquisition
anticipated
agriculture
antibiotics
adventurous
aristocracy
aeronautics
abbreviated
adolescents
association
authorities
adaptations
approximate
accelerator
assignments
accordingly
accusations
albuquerque
anthologies
adjustments
aggregation
antiquities
accommodate
accelerated
achievement
adolescence
assumptions
aspirations
assassinate
alterations
amalgamated
appointment
abstraction
acknowledge
accessories
archaeology
accountants
attractions
application
archipelago
assessments
appalachian
accountable
automobiles
advancement
inaugurated
instability
interceptor
inspections
ingredients
imaginative
illuminated
incorrectly
implication
involvement
institution
indifferent
illustrates
integrating
involuntary
interfering
interacting
individuals
interpreter
inheritance
inscription
identifying
inclination
influential
impressions
instruments
importantly
imagination
immediately
instruction
inquisition
installment
improvement
immigration
intercepted
illustrator
information
invitations
incorporate
immortality
inspiration
innovations
interpreted
imperialism
instructors
interchange
interrupted
interviewed
ideological
ineffective
impatiently
inexpensive
independent
incarnation
intercourse
integration
illustrated
influencing
investments
investigate
intervening
illustrious
inhabitants
indications
intensified
intimidated
intentional
interaction
implemented
inactivated
initiatives
interactive
interesting
intelligent
introducing
wavelengths
wurttemberg
withdrawing
westminster
whereabouts
willingness
westchester
hospitality
homogeneous
housekeeper
hostilities
householder
handicapped
heavyweight
highlanders
herzegovina
humiliating
handwriting
hellenistic
highlighted
harpsichord
hammersmith
humiliation
helicopters
frustrating
fascination
furnishings
facilitates
flexibility
footballers
frustration
forgiveness
facilitated
financially
flourishing
fellowships
festivities
frequencies
formulation
fabrication
fitzpatrick
friendships
fundamental
frantically
fortunately
feasibility
fluorescent
forthcoming
frightening
furthermore
fingernails
fundraising
fashionable
foundations
fascinating
fulfillment
familiarity
functioning
benedictine
billionaire
beautifully
bloomington
bureaucracy
blockbuster
bartholomew
butterflies
brotherhood
businessmen
biographies
bombardment
businessman
battlefield
bournemouth
broadcaster
battleships
backgrounds
bangladeshi
brandenburg
##americana
##iciencies
##ification
##connected
##stituting
##orescence
##unciation
##tablished
##promising
##lassified
##plication
scholarship
shortlisted
speculation
sovereignty
supplements
seriousness
sociologist
submissions
springsteen
subdistrict
southampton
synthesizer
surrounding
secretaries
subdivision
spectacular
scientology
stimulation
speculative
superficial
superfamily
superiority
soundtracks
sympathetic
specialists
syndication
significant
spearheaded
specialised
scandinavia
segregation
songwriting
substantial
secretariat
substantive
spontaneous
suggestions
subtropical
substitutes
synthesized
statistical
streamlined
sentimental
shareholder
supervisory
seventeenth
subscribers
simulations
specialized
sensitivity
substituted
schoolhouse
susquehanna
saxophonist
subordinate
specializes
stereotypes
sponsorship
susceptible
smithsonian
scarborough
slaughtered
sustainable
supervising
symmetrical
springfield
stimulating
supermarket
subsistence
songwriters
supervisors
sedimentary
switzerland
settlements
suppression
supervision
shakespeare
surrendered
yellowstone
neighboring
nutritional
nonetheless
necessarily
netherlands
nickelodeon
nightingale
northampton
negotiating
nationalism
nationalist
nationality
naturalized
nominations
negotiation
multiplayer
merchandise
manufacture
maintenance
ministerial
magnificent
maintaining
motorcycles
mathematics
momentarily
manuscripts
mississippi
meritorious
mountainous
memorabilia
montpellier
marketplace
mercenaries
magistrates
manipulated
meaningless
mecklenburg
millionaire
maharashtra
mesopotamia
mischievous
microscopic
millimetres
minneapolis
motorsports
marlborough
masterpiece
montenegrin
measurement
medications
monasteries
methodology
universidad
undertaking
unification
unspecified
unpublished
unconscious
undeveloped
uninhabited
understands
universally
unfortunate
ultraviolet
undisclosed
underground
uncertainty
unnecessary
unavailable
undoubtedly
unanimously
utilization
cultivation
categorized
compartment
constantine
commissions
concurrency
competitors
coincidence
centimeters
contrasting
chamberlain
consciously
circulation
containment
celebrating
crystalline
confidently
convertible
confronting
comfortably
chromosomes
confessions
clandestine
combination
connections
commitments
consumption
campaigning
contributor
compromised
cooperative
commodities
counterpart
commemorate
controversy
consecutive
constraints
contributed
concentrate
celebrities
credentials
citizenship
controllers
controlling
competitive
convenience
compression
calculation
conventions
consolation
centimetres
conjunction
coordinator
comparisons
conflicting
culminating
chairperson
consecrated
commonplace
christensen
calculating
confinement
christopher
comfortable
conditioned
coefficient
contractors
competition
contraction
charlemagne
coordinates
corrections
convergence
circulating
contentious
criticizing
communities
charismatic
celebration
collections
conversions
contributes
collingwood
challenging
consequence
continental
conclusions
composition
commercials
communicate
constructed
comparative
countryside
constrained
compensated
constitutes
centralized
connecticut
concessions
chattanooga
correlation
considering
confederacy
computation
congressman
councillors
convictions
catholicism
cornerstone
corresponds
contracting
constituted
contractual
confederate
complaining
consultancy
continually
credibility
complicated
consolidate
conferences
commentator
cooperation
consistency
corporation
contestants
compilation
consultants
confiscated
certificate
cylindrical
constituent
collaborate
catastrophe
coordinated
conditional
conspicuous
libertarian
legislation
liquidation
legislators
limitations
landscaping
legislature
lightweight
livingstone
locomotives
legislative
linguistics
journalists
disappeared
disapproval
deformation
directorate
destruction
detachments
discussions
dignitaries
distributed
disciplines
distinctive
directional
detrimental
distracting
deprivation
discovering
discoveries
demographic
description
deportation
desperately
distinguish
documenting
devastation
designation
drastically
diversified
dilapidated
dissolution
dangerously
devastating
definitions
determining
disposition
descendants
dysfunction
distraction
deutschland
distributor
development
destructive
degradation
documentary
descriptive
directorial
differences
dimensional
destination
discouraged
desperation
distinction
derivatives
differently
disturbance
demonstrate
decorations
displeasure
disciplined
declaration
departments
prohibiting
prosecutors
photographs
projections
perspective
prosecution
propagation
philosopher
permanently
practically
proceedings
polynomials
prohibition
precautions
polytechnic
predictions
provisional
programming
playstation
provocative
prostitutes
popularized
proficiency
periodicals
philippines
proprietary
psychedelic
photography
pornography
personality
premiership
problematic
prospective
progression
populations
politicians
psychiatric
prehistoric
penetration
pleistocene
palestinian
principally
potentially
prestigious
possessions
procurement
politically
proportions
pedestrians
programmers
penultimate
plantations
predominant
paralympics
preparatory
penetrating
persistence
progressing
protagonist
probability
positioning
preoccupied
participate
parentheses
preliminary
preferences
picturesque
partnership
perceptions
professions
proposition
punishments
protestants
preparation
prominently
promotional
productions
persecution
participant
protections
publication
predictable
progressive
prematurely
performance
possibility
predecessor
keyboardist
restaurants
restraining
rockefeller
reclamation
researching
requirement
realization
residential
revolutions
restrictive
restricting
respiratory
referencing
resurrected
retribution
republished
radioactive
republicans
reorganized
recognition
redeveloped
restoration
respondents
regulations
reactivated
reluctantly
recommended
resolutions
represented
restriction
reformation
resemblance
registering
resignation
rectangular
revelations
replication
recognizing
renovations
reflections
reminiscent
replacement
respectable
refurbished
reservation
remembering
renaissance
retaliation
researchers
remembrance
recruitment
responsible
reliability
expectation
electrified
evangelical
experiments
elimination
exaggerated
enforcement
experienced
enthusiasts
exploration
expenditure
enterprises
efficiently
eliminating
encountered
encompasses
expeditions
eligibility
essentially
entertainer
exasperated
equilibrium
explanation
environment
equivalence
emotionally
exponential
exceptional
exemplified
extravagant
establishes
educational
emergencies
erroneously
engagements
enhancement
expressions
emphasizing
engineering
exhibitions
empowerment
embarrassed
encouraging
examination
effectively
earthquakes
electricity
electronics
exclusively
encompassed
experiences
entertained
established
extensively
excavations
embroidered
endorsement
genetically
generations
generalized
guadalajara
governments
governorate
girlfriends
grandmother
grandmaster
groundwater
geometridae
grandfather
grammatical
ventilation
voluntarily
voivodeship
variability
volunteered
quarterback
questioning
terrorists
triggering
tenderness
travelling
tajikistan
techniques
trajectory
thoroughly
temptation
transports
theatrical
treatments
telenovela
terrifying
tournament
television
thoughtful
transcript
triangular
throughout
tremendous
traditions
transverse
topography
thereafter
technology
turbulence
transition
telescopes
translator
tightening
triumphant
transforms
themselves
terminated
touchdowns
threatened
terminates
thirteenth
temperance
townsville
travellers
theologian
transplant
tendencies
translates
technician
translated
thankfully
ostensibly
officially
organising
obligatory
orchestras
originates
overturned
overlooked
ordination
originated
objectives
occasional
orthogonal
outrageous
optimistic
outfielder
ornamental
occurrence
overcoming
oppression
obligation
operatives
oppressive
objections
orchestral
operations
overseeing
opposition
organizing
occupation
organizers
originally
alteration
archdeacon
attributes
addressing
apartments
approached
automobile
attributed
algorithms
associated
ammunition
adjustment
alexandria
affiliates
analytical
acquainted
absorption
applicants
aggravated
admissions
adventures
arithmetic
accomplish
antarctica
activities
astonished
afternoons
apparently
astronauts
antibodies
activation
acceptable
authorship
atmosphere
architects
appreciate
agreements
attendants
adaptation
accusation
accurately
amphibious
assumption
autonomous
automation
aboriginal
adequately
appliances
appearance
applicable
anatomical
apologized
attachment
auditioned
attempting
additional
afterwards
accustomed
adrenaline
accelerate
artificial
announcing
archbishop
accessible
ambassador
adjustable
accountant
administer
attractive
adventurer
associates
altogether
automotive
attendance
aggression
antagonist
accredited
authorized
alessandro
assistance
authorised
amplifiers
advantages
acceptance
apologetic
advocating
alcoholism
atrocities
aggressive
accordance
annexation
antoinette
assemblies
apprentice
admiration
attracting
appointing
amendments
assessment
auditorium
abandoning
advertised
approaches
accumulate
aesthetics
australian
allocation
accidental
affordable
affiliated
adolescent
attraction
azerbaijan
accounting
absolutely
astronomer
assignment
aggregator
assistants
allegiance
assortment
apocalypse
immigrated
instrument
indigenous
industrial
introduces
insistence
inequality
inspecting
invitation
identifies
internment
initiation
inevitably
irrelevant
indicators
insulation
internally
individual
increasing
infectious
intriguing
inherently
inventions
ineligible
informally
implements
insurgency
invariably
intimately
institutes
imperative
instituted
insurgents
identities
impatience
intervened
interfered
irrational
inevitable
indicative
internship
invincible
interfaces
implicated
initiating
intersects
irritating
indication
italianate
infections
incredible
indefinite
influenced
impressive
investment
innovation
installing
injunction
irrigation
inhibition
instructed
inhibitors
interviews
indirectly
infinitely
integrated
inadequate
incentives
interstate
improvised
inspectors
innovative
instructor
inspection
ironically
identified
impossible
inaccurate
incomplete
intentions
indictment
imprisoned
interested
importance
incredibly
impression
irritation
initiative
immigrants
influences
indicating
impairment
industries
infiltrate
indonesian
introduced
ingredient
immaculate
illustrate
widespread
wheelchair
williamson
withdrawal
warehouses
westphalia
weaknesses
wellington
wealthiest
wastewater
werewolves
wonderland
warrington
waterfalls
willoughby
witchcraft
wilderness
whispering
worshipped
wainwright
waterfront
witnessing
washington
winchester
wavelength
whatsoever
wilmington
windshield
highlights
hesitation
headwaters
homosexual
healthcare
historical
honourable
hutchinson
headmaster
horsepower
huntington
humiliated
heidelberg
horizontal
heartbreak
housemates
helplessly
hypothesis
hemisphere
heightened
hurricanes
households
helicopter
huffington
homecoming
harvesting
harrington
harrisburg
huntsville
hesitantly
hungarians
hysterical
humanities
historians
headlining
headlights
harassment
hereditary
formulated
fatalities
footprints
fabricated
fingertips
formidable
federation
forcefully
freshwater
frequented
fraudulent
frustrated
franciscan
flickering
functional
facilities
formations
filmmakers
flourished
fellowship
friendship
forgetting
foreigners
fragmented
favourites
futuristic
fraternity
fascinated
fitzgerald
facilitate
flashlight
franchises
fourteenth
fulfilling
functioned
filmmaking
fundraiser
footballer
fictitious
foundation
frightened
figurative
favourable
frequently
forerunner
flashbacks
fluttering
befriended
blackberry
buccaneers
belongings
barbarians
boundaries
bundesliga
bargaining
burlington
bodyguards
beneficial
benevolent
battleship
barrington
binoculars
belarusian
beforehand
backstroke
bewildered
birthplace
bratislava
bankruptcy
bridgeport
bloomfield
brightness
buckingham
bequeathed
birmingham
bolsheviks
broadcasts
background
bitterness
bombardier
biological
basketball
battalions
babylonian
behavioral
biographer
breathless
brightened
businesses
bernardino
biomedical
blacksmith
bestseller
beginnings
brilliance
bangladesh
benefactor
##peration
##breakers
##economic
##minating
##egorical
##analysis
##inations
##missible
##rricular
##cultural
##omorphic
##national
##asurable
##powering
##ographic
##quitable
##esthesia
##building
##claiming
##pressive
##personal
##vocation
##carriage
##lization
##entation
##morphism
##sibility
##pressing
##partisan
##physical
##nivorous
##ological
##tropical
##iography
##boarding
##lessness
##standing
##ologists
##ructured
##ditional
##tructing
##dication
##cellular
##chemical
##bilities
##fighting
##rization
##izations
##fication
##piration
##position
##ographer
shrewsbury
staggering
strasbourg
systematic
sweatshirt
substrates
strawberry
separation
sacramento
storylines
sacrificed
stimulated
silhouette
scientific
skepticism
subsidiary
scholastic
simulation
stephenson
sponsoring
suggesting
solidarity
substances
supervised
seychelles
settlement
shouldered
specialist
suspicions
successors
sculptures
sanctioned
speechless
semifinals
segregated
strikeouts
standalone
skyscraper
scattering
supporters
stronghold
scheduling
suppressed
strengthen
strategies
supposedly
sutherland
statements
supplement
satellites
synonymous
syndicated
structural
stipulated
sentencing
suggestion
satisfying
servicemen
scratching
subspecies
spectators
superseded
stationary
struggling
stretching
succeeding
simplified
scrambling
securities
succession
symphonies
shreveport
surpassing
starvation
successive
speculated
sufficient
summarized
sensations
swallowing
socialists
superhuman
sweetheart
sacrifices
suspicious
southbound
screenings
stepmother
sunglasses
serialized
structures
suspension
sequential
showcasing
separating
songwriter
similarity
submarines
shropshire
subsequent
straighten
shattering
smartphone
stagecoach
simplicity
screenplay
somerville
substitute
sandwiches
supporting
sunderland
structured
supportive
situations
signalling
schumacher
shuddering
surrounded
surprising
smashwords
shimmering
subdivided
sequencing
selections
sentiments
supervisor
scientists
soundtrack
successful
stepfather
subjective
signatures
stabilized
statistics
spacecraft
sustaining
sanitation
scriptures
separately
submission
yourselves
yugoslavia
narratives
negatively
noticeable
newspapers
northbound
negligence
negotiated
noticeably
nightmares
northwards
networking
neighbours
nomination
nightstand
navigation
napoleonic
nationally
nottingham
newsletter
nineteenth
nationwide
naturalist
nonfiction
noteworthy
neutrality
membership
miniatures
manuscript
marylebone
mozambique
mistakenly
mechanized
metropolis
mitsubishi
mechanical
managerial
maintained
motivation
memorandum
metacritic
messengers
motionless
microscopy
missionary
montgomery
multimedia
miniseries
microphone
meditation
mainstream
montevideo
marguerite
motorcycle
metabolism
microscope
monumental
modulation
middletown
morphology
madagascar
misleading
miraculous
macedonian
monitoring
martinique
midfielder
motorsport
moderately
minorities
montenegro
modernized
mysterious
ministries
magistrate
melancholy
mercantile
mechanisms
manifested
maximilian
management
millennium
manipulate
medication
multiplied
mclaughlin
misconduct
manchester
mentioning
meaningful
underneath
unexpected
understood
undertaker
ubiquitous
underlying
unbearable
underworld
unaffected
unpleasant
underwater
uncredited
unreleased
unreliable
unofficial
unsuitable
unemployed
unfinished
ultimately
university
undertaken
undercover
understand
upbringing
unfamiliar
uzbekistan
undergoing
undefeated
ultrasound
universite
celebrates
congestion
capacities
challenges
criticisms
cornerback
communists
conditions
connecting
characters
conducting
carmichael
collective
ceremonies
compromise
cultivated
contention
collection
compensate
capitalist
conclusion
conviction
centennial
concepcion
corruption
correction
curriculum
competence
contractor
colchester
comforting
companions
controlled
canterbury
cheltenham
cumberland
continents
chromosome
chronicles
cartridges
consistent
cheerfully
conversely
censorship
constraint
caledonian
correlated
courageous
collarbone
critically
circulated
conscience
comprehend
completion
challenger
camouflage
consortium
concurrent
configured
conspiracy
completing
contribute
compulsion
culturally
complaints
coloration
conductors
conjecture
cartwright
carpathian
commission
classified
chronology
ceremonial
candidates
concluding
commercial
confirming
cretaceous
campaigned
customized
components
continuing
contiguous
convention
consonants
converting
collectors
campeonato
containers
cigarettes
comparable
compliance
compassion
confidence
criticized
copenhagen
compulsory
controller
cautiously
christians
capability
collisions
commenting
cartoonist
categories
concerning
coordinate
compelling
containing
continuous
collapsing
chesapeake
completely
commencing
committees
challenged
contracted
consisting
commanding
charleston
contrasted
conceptual
cemeteries
consultant
connection
compressed
committing
counseling
complained
cunningham
culminated
collecting
confronted
classmates
commitment
coronation
complexion
crossroads
criticised
calculated
combatants
celebrated
contenders
congenital
creativity
continuity
collateral
capitalism
contingent
commentary
condemning
conversion
commanders
confession
cincinnati
convection
consulting
constitute
considered
compliment
cumulative
cheekbones
courthouse
conception
concussion
compressor
christophe
constantin
councillor
casablanca
cinderella
corrugated
churchyard
casualties
compatible
correspond
congresses
championed
constantly
comprising
campground
comparison
checkpoint
confluence
collegiate
contestant
classrooms
california
childbirth
colleagues
combustion
concession
commandant
convenient
charitable
complement
chichester
conference
chancellor
convincing
competitor
complexity
legitimacy
landowners
legitimate
livelihood
liturgical
laundering
limitation
linguistic
lauderdale
legislator
localities
lieutenant
likelihood
louisville
leadership
lancashire
landscapes
logistical
literature
linebacker
lithuanian
lighthouse
livingston
loneliness
laboratory
liberalism
luxembourg
locomotive
liberation
litigation
journalism
journalist
jacqueline
dimensions
difference
dispatched
dismissing
discovered
describing
derivative
discipline
depression
detachment
dictionary
dominating
disastrous
deliveries
destroyers
determined
displaying
designated
department
domination
dorchester
delegation
diminished
dismounted
directions
discussing
dismantled
definitive
diplomatic
dedication
darlington
delivering
democratic
defendants
deposition
distracted
definitely
divisional
developers
diagnostic
deployment
delicately
difficulty
disruption
disneyland
downstream
documented
descending
distraught
dusseldorf
deliberate
defamation
definition
disability
discourage
destroying
distribute
descendant
disclosure
deficiency
decoration
depictions
decorative
delightful
discomfort
demolished
developing
distinctly
downloaded
dependence
discussion
discharged
determines
disappears
dependency
downstairs
disgusting
distortion
derbyshire
disturbing
devastated
demolition
distressed
discretion
distillery
discontent
detectives
dissipated
derivation
decreasing
paranormal
perfection
profoundly
passengers
photograph
paralympic
publishing
passageway
provisions
practicing
proclaimed
patrolling
protective
positively
procession
peacefully
protruding
prevailing
politician
presidency
possessive
powerhouse
protestant
positioned
prosecuted
propaganda
propulsion
preferring
powerplant
profitable
passionate
projecting
plantation
petersburg
promotions
pronounced
pomeranian
personally
provincial
prescribed
presenting
portraying
productive
proponents
prediction
penetrated
psychology
prominence
publicized
prevalence
presidents
physicians
publishers
protesters
propellers
proficient
protesting
phosphorus
perception
parameters
programmes
procedural
programmer
profession
production
partnering
postseason
polynomial
principals
progressed
playground
properties
persecuted
proprietor
priesthood
parramatta
periodical
permitting
performing
physiology
peripheral
pilgrimage
programmed
purchasing
philosophy
pertaining
portsmouth
particular
protection
presumably
pioneering
processors
popularity
possession
providence
paddington
punishment
posthumous
prostitute
prevention
procedures
philippine
pedestrian
pontifical
projective
population
proportion
professors
predicting
pretending
parliament
plaintiffs
progresses
protecting
processing
presenters
portuguese
preserving
projectile
prohibited
prosecutor
prefecture
possessing
phenomenon
privileged
prototypes
performers
previously
percentage
persuasion
psychiatry
postmaster
persistent
privileges
priorities
permission
peninsular
playwright
palatinate
pleasantly
prosperity
petitioned
preventing
proceeding
physically
precedence
principles
projection
percussion
pittsburgh
prosperous
preference
kazakhstan
kyrgyzstan
kidnapping
kilometres
kilometers
konstantin
kensington
reflection
rendezvous
recordings
represents
rebellious
reciprocal
registered
regulation
reservoirs
repetition
revelation
redesigned
regulating
responding
rebuilding
respective
richardson
reputation
researches
reportedly
resolution
relentless
revolution
retirement
recognised
relocation
recognized
reinforced
reelection
remarkable
requesting
referenced
relaxation
rutherford
reassigned
referendum
reproduced
relativity
repertoire
retreating
relaunched
reluctance
resentment
renumbered
reflective
republican
recruiting
reductions
resembling
reiterated
reassuring
restaurant
recipients
regimental
restricted
rothschild
repeatedly
regulators
reasonable
receptions
repository
regardless
respecting
recognizes
researched
repression
resurgence
roundabout
recovering
restrained
remarkably
respectful
resistance
rainforest
restraints
recreation
racecourse
relational
references
relatively
regulatory
romanesque
relocating
rehearsals
recaptured
remembered
reflecting
ridiculous
recommends
regression
repetitive
rotational
researcher
reinstated
renovation
relegation
reappeared
redemption
reconciled
remastered
refreshing
responsive
reasonably
residences
ecumenical
everything
electrical
electorate
enthusiast
estimation
experience
efficiency
extraction
explosives
encryption
enterprise
eurovision
extensions
embroidery
equestrian
eucalyptus
everywhere
envisioned
encounters
eastenders
expedition
engineered
electronic
engagement
expressing
exercising
excavation
ecological
exposition
exhibition
englishman
experiment
exhibiting
excitement
earthquake
explaining
externally
exhaustion
ecosystems
extinction
evacuation
enthusiasm
eventually
economists
euroleague
enrichment
evaluation
expression
equatorial
expressive
enrollment
elementary
embankment
eisenhower
encourages
engravings
expressway
equivalent
eighteenth
elevations
especially
emphasizes
emigration
executions
economical
elliptical
executives
explosions
exchanging
evaluating
excellence
encouraged
eliminated
exceptions
endangered
elaborated
emphasized
employment
evangelist
explicitly
grasslands
greenville
generosity
glittering
gothenburg
greenfield
generating
geographic
goaltender
goalkeeper
gunslinger
goalscorer
glistening
gatherings
geschichte
governance
graduation
guitarists
grassroots
gracefully
geological
guaranteed
guidelines
graduating
gettysburg
guerrillas
greenhouse
generation
generators
gymnastics
guggenheim
gloucester
guarantees
girlfriend
greensboro
guantanamo
government
georgetown
vegetation
violations
vernacular
visibility
victorious
vanderbilt
vulnerable
variations
visitation
vaudeville
volunteers
vibrations
volleyball
versailles
venezuelan
vegetables
vegetarian
vocational
vertically
veterinary
vietnamese
vigorously
volkswagen
validation
vocabulary
questioned
qualifying
queensland
qualifiers
quantities
zoological
tottenham
tasmanian
taxonomic
traveller
treatment
telescope
throbbing
thrusting
touchdown
trembling
tolerance
trumpeter
teenagers
therefore
teachings
textbooks
timetable
tradition
transport
tombstone
temporary
tipperary
tightened
travelled
temeraire
turquoise
typically
trondheim
tentative
turbulent
terrified
telegraph
terminals
triangles
tormented
theorists
therapist
twentieth
targeting
thickness
telephone
torpedoes
traversed
transform
treasurer
taekwondo
telangana
trademark
taiwanese
tornadoes
testament
testimony
territory
treasures
transfers
temperate
townships
thrilling
televised
translate
takahashi
thousands
terminate
triggered
taxpayers
technique
truncated
twitching
tolerated
transient
tributary
transvaal
travelers
technical
terrorism
teammates
testified
threatens
terrorist
traumatic
traveling
tennessee
threshold
tentacles
organisms
orphanage
otherwise
organized
organizer
outskirts
observers
overgrown
oblivious
occupying
occasions
orchestra
ordinance
overnight
officials
organised
offspring
overthrow
objection
offensive
ourselves
operating
offerings
obsession
objective
occupants
octagonal
obedience
onslaught
opponents
overboard
ornaments
oversight
oversized
organizes
operators
originals
outspoken
offenders
outsiders
overheard
obviously
occurring
originate
observing
operative
ownership
oxidation
operation
obtaining
orthodoxy
obstacles
according
advancing
artifacts
albanians
authority
antarctic
amplifier
aquitaine
agitation
assertion
affection
ancestral
arboretum
attackers
announcer
arresting
aftermath
amenities
arlington
aleksandr
adventure
authentic
airfields
abolished
algebraic
addresses
apologies
aluminium
analyzing
archibald
associate
augmented
attribute
abolition
ambiguous
ambitions
attracted
appointed
altitudes
archangel
available
acclaimed
awkwardly
amendment
activated
applicant
acquiring
attempted
accounted
abstracts
ambitious
ascending
anxiously
ahmedabad
admiralty
advocates
artefacts
apartment
abduction
arguments
appearing
airplanes
achieving
attorneys
accession
alleviate
appealing
adjusting
alignment
augustine
abdominal
anastasia
alexander
afrikaans
animation
assisting
averaging
adjoining
advantage
abandoned
alligator
americans
admission
attacking
armstrong
annoyance
architect
addressed
australia
aesthetic
auschwitz
artillery
academics
auditions
awakening
adherence
assessing
additions
apartheid
accidents
avalanche
accessory
acquitted
activists
alternate
ancestors
allowance
assembled
anarchist
analytics
aggregate
amazement
anonymous
astronaut
apologize
appellate
assassins
alzheimer
alejandro
abilities
accompany
austrians
apparatus
announced
affecting
answering
agreement
ambiguity
admitting
adventist
attendant
amsterdam
attendees
avoidance
adversary
adjective
auxiliary
alcoholic
arrogance
apostolic
americana
amplified
academies
addiction
actresses
arranging
algorithm
annabelle
attitudes
absorbing
argentine
assistant
adulthood
athletics
attention
asserting
accordion
annapolis
awareness
alliances
alexandre
arbitrary
affiliate
accolades
ascension
abundance
allegedly
assurance
alongside
afterlife
automated
amplitude
anthology
amazingly
asteroids
anchorage
aerospace
adherents
ambulance
audiences
announces
afternoon
allegheny
amusement
andersson
alexandra
attaining
assaulted
automatic
accepting
astronomy
argentina
armenians
arthritis
allocated
aerodrome
advocated
antiquity
analogous
attending
afterward
aristotle
armistice
impatient
including
incentive
illnesses
instantly
investors
imperfect
immersion
indicator
insurance
invariant
islanders
incidents
initially
intending
intervals
illegally
interface
intellect
inclusive
insertion
irregular
involving
ignorance
iteration
inversion
innsbruck
indicates
insistent
immortals
informing
inherited
instituto
isolation
invention
interests
immensely
introduce
interlude
inventory
illusions
increased
indicated
inscribed
interiors
infirmary
influence
intricate
inference
inspector
immigrant
indonesia
injustice
increases
identical
intensive
irritated
incumbent
induction
impromptu
interrupt
integrity
intuitive
innocence
incorrect
indochina
insisting
intensely
intensity
inclusion
intention
investing
inception
interfere
imaginary
intrusion
influenza
intrinsic
icelandic
inverness
inflation
improving
instincts
intercity
instances
intercept
inhabited
inhibitor
insulting
inflicted
interpret
implement
inaugural
invasions
incapable
interview
inspected
inability
islamabad
immediate
installed
intervene
integrate
imitation
impending
invisible
imagining
initiated
inorganic
informant
impressed
inspiring
inquiries
infection
institute
incidence
intersect
intuition
important
intrigued
injection
wentworth
whereupon
workshops
wednesday
woodlands
willingly
waistband
wrestlers
westfield
wimbledon
worthless
weathered
workplace
wonderful
whispered
wisconsin
wolverine
whistling
wikipedia
whimpered
whichever
witnessed
wiltshire
warehouse
welcoming
wellesley
woodstock
whitehall
westbound
waterford
wandering
waterfall
whitehead
wakefield
wondering
withstand
wehrmacht
worcester
wilkinson
wrestling
weakening
workforce
waterways
withdrawn
worldwide
wanderers
witnesses
wholesale
wheelbase
watershed
hilarious
headlined
happiness
hendricks
hierarchy
horseback
halloween
hepatitis
hungarian
hollywood
hermitage
hardcover
hernandez
histories
highlands
hampstead
havilland
harmonies
henrietta
hitchcock
headlines
hyderabad
hopefully
hemingway
heartland
hindwings
holocaust
hydraulic
hurricane
happening
hazardous
handcuffs
harmonica
hostility
honeymoon
hawthorne
horseshoe
hampshire
hiroshima
himalayas
hurriedly
highlight
hezbollah
homestead
hammering
henderson
hamburger
harvested
horrified
heartbeat
household
hospitals
himalayan
historian
hesitated
honorable
fisheries
financing
fulfilled
following
fairbanks
factories
fairfield
fluttered
fireworks
friedrich
freelance
franchise
flowering
furiously
festivals
finalized
forewings
forbidden
featuring
francaise
favourite
foreigner
frenchman
formation
favorable
flashback
framework
fairchild
finishing
fulbright
foothills
fictional
fifteenth
fireplace
faculties
fractured
fortified
footprint
fernandez
freighter
frankfurt
furniture
flattened
fantasies
fremantle
financial
filtering
francesco
furnished
favorites
ferdinand
footsteps
fishermen
francesca
fertility
followers
filmmaker
fledgling
frontiers
fisherman
fashioned
federally
frequency
fragments
francisco
farmhouse
functions
freestyle
finalists
favorably
flickered
frederick
fortunate
fantastic
fragrance
ferocious
fractures
francoise
forgotten
forefront
fusiliers
fountains
fleetwood
brigadier
behaviour
britannia
balancing
bookstore
bordering
byzantine
bilingual
bharatiya
basically
bathrooms
bucharest
breakaway
beginning
blackwell
believers
backwards
bandwidth
brilliant
bethlehem
butterfly
blackburn
badminton
batteries
baronetcy
blessings
boardwalk
breakfast
bonaparte
barcelona
brightest
ballistic
blanchard
bolshevik
briefcase
brentford
biography
bloomberg
backstage
broadcast
brunswick
brutality
breathing
balthazar
bacterial
behaviors
botanical
billboard
bishopric
bartender
blackened
belonging
breakdown
boyfriend
bulgarian
buildings
brazilian
barbarian
bernstein
berkshire
bodyguard
bangalore
bluegrass
bothering
beethoven
believing
beverages
biologist
baltimore
barrister
blindness
blackness
battalion
bilateral
benefited
beautiful
broadband
blackpool
broughton
bourgeois
belgarath
bacterium
branching
blackmail
burroughs
bollywood
boulevard
borrowing
##ometric
##ulation
##tangled
##isation
##itating
##keeping
##logists
##ocating
##minster
##keepers
##rington
##genesis
##writing
##riation
##tituted
##itarian
##borough
##venting
##escence
##lifting
##uttered
##morphic
##ization
##charged
##grating
##missive
##powered
##culture
##ivating
##biology
##ignment
##ciation
##ivision
##tracted
##version
##zziness
##holders
##osition
##written
##logical
##iculate
##itation
##centric
##ricting
##patient
##ference
##holding
##igraphy
##ulating
##ination
##verance
##osaurus
##tenberg
##masters
##hampton
##ocation
##urities
##therapy
##ication
##fighter
##tically
##chemist
##lington
##cturing
##ensburg
##ologist
##nberger
##factory
##manship
##ceptive
##rogated
##raction
##inatory
##breaker
##eration
##kiewicz
##hearted
##enstein
##llation
##teacher
##itative
##tlement
##working
##mounted
##dermott
##clusive
##ctuated
##ologies
##ography
##ropolis
##meister
##grapher
##ibility
##pressed
##imeters
##fulness
##physics
##ttering
##tension
##grounds
##ntation
##imating
##mission
##iferous
##uration
##typical
##stellar
##ractive
##quisite
##ivation
##folding
##inating
##thermal
##ulously
##movable
##channel
##balance
##weather
##duction
##oration
##founded
##ductive
##farlane
##vington
##minated
##systems
##ability
##romatic
##icative
##ishment
##station
##lateral
##dington
##utation
##gration
##erative
##krishna
##rations
##ilation
##estinal
##graphic
##loading
##nington
##kushima
##berries
##ception
##plicity
##chester
##osphere
##dicated
##section
##chfield
subfamily
secession
someplace
supported
streaming
storyline
sectional
smackdown
steamship
socialism
sacrifice
safeguard
shillings
schleswig
southwest
survivors
scratched
spaceship
slaughter
satirical
starboard
shattered
symphonic
stretched
straining
succeeded
spokesman
scratches
seemingly
sensation
successor
smuggling
southland
shortened
skeptical
stephanie
syndicate
sebastian
simulcast
stratford
sheffield
superhero
societies
semifinal
smoothing
screaming
sandstone
spreading
synagogue
supporter
strangers
surpassed
spherical
synthesis
synthetic
squeezing
sugarcane
starbucks
struggled
stockport
salamanca
standings
signature
saxophone
squinting
screening
statehood
salisbury
successes
surprised
selective
splitting
shielding
stupidity
scattered
startling
streetcar
selection
scientist
superliga
southport
surprises
specially
suffering
satisfied
statewide
salvation
sharpened
suspected
stockings
schooling
sacrament
stainless
seventies
specifies
servicing
showcases
solicitor
stiffened
sebastien
sentenced
submitted
symposium
surveying
surrender
switching
seductive
skeletons
sometimes
spotlight
stuttgart
structure
similarly
scrolling
sportsman
statement
specialty
spaghetti
saturdays
sweetness
staircase
solutions
scheduled
sovereign
semantics
salvatore
shortstop
steamboat
scrambled
sincerity
spaniards
swallowed
sincerely
singapore
sensitive
submarine
stabilize
sustained
supplying
stylistic
southward
separated
sprawling
selecting
somewhere
sarcastic
schneider
stability
spiritual
sophomore
simulated
suggested
signifies
seduction
secondary
surviving
submerged
supervise
shuddered
sultanate
slightest
southeast
stillness
sculptors
scripture
satellite
stationed
showcased
symbolism
strangled
supremacy
siegfried
situation
schedules
sentences
searching
subjected
specimens
simulator
sponsored
superiors
seriously
spectator
sanctuary
surrounds
statesman
specified
strategic
sediments
staggered
substrate
shivering
sculpture
sequences
superstar
separates
saskatoon
strongest
sparkling
subsidies
singleton
september
sylvester
suppliers
shipments
standards
substance
strangely
suspended
sentiment
spectacle
shoulders
scholarly
secretive
strengths
shoreline
sidewalks
sheltered
shrinking
socialist
spielberg
stretches
sixteenth
scenarios
signaling
stumbling
sigismund
suspicion
squirrels
shortages
sociology
succumbed
stockholm
statutory
syllables
sexuality
sanctions
stimulate
shuffling
stevenson
stripping
symmetric
struggles
seventeen
squadrons
slovenian
secretary
stammered
saturated
something
stairwell
yorkshire
yellowish
yesterday
necessary
nightfall
northeast
nominated
neighbour
notoriety
nicaragua
noctuidae
nervously
navigator
nonlinear
naturally
narcotics
numbering
nutrients
narrowing
newmarket
northwest
newcastle
nietzsche
nightclub
nominally
nicholson
northward
nonprofit
nighttime
newcomers
nostalgia
newscasts
nutrition
nationale
narration
nocturnal
newspaper
necessity
nathaniel
nationals
navigable
notorious
norwegian
nicknamed
narrative
nuremberg
neglected
neighbors
neolithic
nashville
nightmare
numerical
negotiate
marketing
ministers
midsummer
manhattan
medicinal
mandatory
monuments
monograph
microwave
magnitude
miniature
malayalam
marriages
mountains
margarita
magazines
monterrey
malicious
masculine
medicines
motivated
malaysian
melbourne
mussolini
mysteries
musically
movements
murderers
muttering
memorable
migrating
makeshift
moonlight
monstrous
membranes
murderous
monastery
milwaukee
militants
mukherjee
methodist
mausoleum
miserable
metabolic
messenger
musicians
mutations
meanwhile
macmillan
mobilized
maternity
marseille
munitions
madeleine
mackenzie
modifying
medallion
migratory
mongolian
migration
monitored
minnesota
modelling
marijuana
macquarie
mechanism
motorized
measuring
modernism
magnesium
magdalena
macedonia
mastering
municipal
mortality
multitude
merchants
momentary
machinery
mentioned
mcconnell
millennia
mechanics
mammalian
macarthur
mcdonnell
maneuvers
mentoring
maintains
mansfield
marvelous
magdalene
mcpherson
moderator
mavericks
microsoft
messaging
macintosh
middlesex
memorials
mccormick
materials
molecular
manifesto
murdering
mauritius
mythology
molecules
macdonald
middleton
modernist
marquette
mushrooms
milestone
mediation
medallist
mercenary
mccartney
uncovered
utilities
underwood
universal
utilizing
unleashed
undertake
untouched
underwear
undermine
unearthed
undergoes
uncertain
unusually
unanimous
undrafted
upgrading
unpopular
unchanged
uruguayan
unitarian
ultimatum
underwent
underside
unwilling
undergone
ukrainian
uniformly
unrelated
unnoticed
unnatural
unlimited
undertook
unmarried
unopposed
uniformed
consonant
certified
citations
comparing
catalogue
catchment
campaigns
combining
composing
commended
commenced
commander
christine
cassandra
candidacy
caressing
conducted
community
caledonia
challenge
commented
conserved
champions
crusaders
crocodile
competing
completes
catherine
courtyard
caribbean
cardinals
claremont
cleopatra
champagne
continued
counselor
clenching
cylinders
countless
craftsman
chronicle
cleansing
coincided
communion
cartridge
confusion
carpenter
converted
corporate
comprises
copyright
commotion
candidate
compiling
consumers
coalition
champaign
cornelius
ceasefire
correctly
convinces
companies
composite
childhood
commandos
commanded
celebrate
collector
constance
colonists
civilians
celebrity
centuries
cricketer
composure
confusing
curiously
clockwise
contender
connector
character
crambidae
constable
consulate
colombian
corrected
creations
certainty
christmas
classical
calculate
conflicts
carriages
captivity
container
cosmetics
clarified
concourse
customers
centrally
component
chemistry
cavaliers
complaint
considers
compelled
corrosion
contained
countries
chevalier
collapses
cavendish
concordia
conductor
continual
centenary
cognitive
chevrolet
corridors
coastline
criterion
cardboard
classmate
craftsmen
carbonate
confronts
concerned
currently
concealed
curiosity
collected
carefully
conferred
crossings
clustered
christoph
crumbling
childless
connected
continent
chocolate
consulted
composers
courtroom
contested
celestial
concludes
courtship
clutching
cooperate
criminals
churchill
creatures
canadiens
capturing
charities
continuum
concluded
conceived
countdown
clubhouse
christina
consisted
civilized
customary
colourful
corrupted
cigarette
colleague
caretaker
comedians
captained
commodity
clergyman
contacted
cambodian
collision
compliant
cinematic
confirmed
continues
classroom
chieftain
cafeteria
conquered
confesses
convicted
cantonese
committee
confident
complexes
contracts
completed
compounds
confessed
condition
committed
catalytic
caliphate
chihuahua
columbian
collapsed
creditors
cathedral
competent
curvature
canonical
computing
conqueror
chemicals
commodore
criticism
computers
conscious
closeness
cognition
consensus
construct
catalonia
christian
caucasian
cambridge
catholics
certainly
columnist
contrasts
condemned
communist
condensed
cancelled
clearance
countered
canadians
chinatown
cleveland
charlotte
crossover
convinced
comprised
communism
companion
chartered
consuming
loyalists
lucrative
liberties
listening
libraries
ljubljana
louisiana
limousine
lightning
lithuania
lafayette
landmarks
lexington
luxurious
liability
lifestyle
livestock
letterman
logistics
landscape
luftwaffe
lingering
languages
leicester
limestone
legendary
leningrad
localized
longevity
literally
locations
liberated
labourers
listeners
launching
lettering
librarian
liverpool
labyrinth
landowner
longitude
landslide
lancaster
licensing
judgments
junctions
johnstone
jewellery
jamestown
johansson
justified
jerusalem
juveniles
jordanian
josephine
judiciary
judgement
jefferson
desirable
democrats
darkening
disrepair
diplomacy
decreases
dispersed
dimension
doncaster
destroyer
directors
dominican
directive
destroyed
designers
defective
deviation
defeating
dwellings
detainees
distorted
decorated
dialogues
doctorate
defaulted
deposited
dependent
disasters
decisions
dinosaurs
doctrines
declining
disguised
describes
depending
denounced
directing
daughters
detection
directory
delicious
displayed
defensive
departure
detectors
designate
defenders
deciduous
defending
dashboard
disrupted
discovers
diversion
democracy
dedicated
developed
downloads
differing
dominates
detonated
distances
detention
delegates
diplomats
discusses
disciples
disturbed
dangerous
declaring
dormitory
deafening
detailing
diversity
detective
deception
digitally
databases
donaldson
disappear
discarded
defendant
discourse
dismissed
dismissal
decidedly
determine
deportivo
dispersal
diagnosis
descended
different
diffusion
delivered
discovery
divisions
difficult
departing
developer
decreased
dartmouth
dominated
dominique
detecting
demetrius
disclosed
discharge
davenport
dickinson
diagnosed
disagreed
demanding
duplicate
discussed
districts
dentistry
downwards
donations
disbelief
delighted
disregard
darmstadt
described
dynasties
depicting
disbanded
desperate
depressed
disorders
designing
dissolved
documents
dominance
displaced
depiction
direction
disgusted
purposely
posterior
promoters
privateer
pathology
publishes
plausible
parochial
paralysis
provision
prominent
presiding
promoting
partridge
permitted
phenomena
perennial
parkinson
premature
parachute
physician
pictorial
porcelain
preferred
persisted
pickering
primarily
prevented
publicity
physicist
pioneered
policemen
pendleton
predators
predicted
positions
protocols
pleasures
patriarch
painfully
presented
precision
preserves
pomerania
preaching
prompting
palestine
published
privately
provinces
probation
protected
projected
pitchfork
political
periphery
professor
paintings
practical
practised
perfectly
president
predatory
proponent
perceived
proposals
plaintiff
priestess
prototype
programme
prisoners
parenting
partially
platforms
promenade
preparing
portfolio
primetime
parameter
performer
pediatric
passenger
producers
priscilla
prejudice
pressures
persuaded
presenter
portrayal
privilege
preseason
pollution
pensacola
processor
partisans
pneumonia
placement
paragraph
popularly
proposing
principal
passports
penthouse
prohibits
powerless
patterson
precisely
populated
pretended
princeton
perpetual
paramount
patiently
playhouse
phosphate
prospects
penetrate
propeller
postponed
policeman
precursor
preceding
performed
pilasters
propelled
petitions
processes
partition
penalties
patronage
prevailed
poisoning
particles
playfully
purchased
possessed
potential
pregnancy
providers
permanent
pakistani
promising
paralyzed
promotion
packaging
plurality
practiced
personnel
processed
parasitic
paperwork
plastered
parallels
presently
portrayed
proceeded
premiered
parchment
preschool
principle
portraits
pamphlets
partnered
paperback
psychotic
preserved
pointedly
purported
pseudonym
pointless
pressured
parasites
petroleum
protector
perimeter
planetary
philology
panchayat
practices
patriotic
potassium
peninsula
producing
poisonous
possesses
patterned
primaries
pulmonary
precedent
providing
procedure
purchases
prolonged
primitive
publisher
proximity
prevalent
protested
kidnapped
knowledge
karnataka
kitchener
katherine
kilometre
kathmandu
knoxville
keyboards
kimberley
kobayashi
karlsruhe
kilometer
kilograms
kurdistan
katharine
racetrack
righteous
redundant
recognise
reluctant
remaining
recruited
recording
registrar
restoring
returning
receiving
reservoir
represent
realising
rebellion
reforming
reclaimed
retreated
religions
radiation
realizing
recession
referring
rhineland
revisions
relevance
rajasthan
retailers
resources
refueling
respected
repertory
relatives
recognize
resembles
romanized
reporters
reykjavik
rendering
restarted
realistic
restraint
residents
recovered
regulator
royalties
regaining
registers
rodriguez
rosenthal
recounted
retrieval
retention
responses
regiments
resulting
remington
recycling
retracted
reprinted
rejection
relocated
residence
reelected
replacing
remodeled
renewable
reference
remainder
rochester
rejecting
radically
revolving
railroads
recapture
reactions
reminding
reduction
recipient
reporting
repeating
relations
releasing
routinely
regretted
responded
republics
reception
rotterdam
retrieved
relegated
racehorse
reviewing
reflected
resigning
regulates
recurring
repairing
readiness
reviewers
reinforce
regarding
receivers
retaining
residency
rehearsal
routledge
rosenberg
requested
reconcile
reasoning
resolving
recalling
requiring
religious
radiating
replicate
riverside
resisting
resistant
revealing
rotherham
renovated
regulated
robertson
reassured
rendition
rebranded
resembled
resultant
regularly
roosevelt
remembers
recreated
radcliffe
revisited
reproduce
receptors
resonance
remarried
realities
recommend
economies
emergence
employees
etymology
execution
exchanged
explained
exclusion
exemption
educating
equations
enforcing
entrusted
extension
exploding
electrons
elevation
evacuated
excitedly
emigrated
expansive
establish
electrode
encompass
espionage
estimates
egyptians
embracing
excavated
excluding
exemplary
endeavour
excellent
exhibited
expulsion
emotional
educators
engineers
extensive
endurance
excursion
enchanted
emphasize
existence
extracted
evolution
eruptions
eyelashes
excessive
ellington
evidenced
exclaimed
explosion
ethnicity
employers
escorting
elizabeth
endeavors
exception
exploited
employing
emissions
entrances
eponymous
everybody
expansion
enclosure
emptiness
elemental
expressed
energetic
exchanges
expresses
electoral
expensive
efficient
exploring
evergreen
ecosystem
expertise
encourage
evidently
extending
exceeding
ethiopian
extremely
eliminate
entertain
empowered
edinburgh
elaborate
episcopal
europeans
enhancing
entourage
elisabeth
eastbound
evaluated
effective
exhausted
examining
escalated
education
estranged
exchequer
elevators
enjoyable
essential
enjoyment
economics
enveloped
executive
enactment
elections
ensembles
empirical
exercised
engraving
exquisite
exercises
exclusive
elsewhere
encounter
equipment
explosive
emergency
explorers
eccentric
estimated
executing
euclidean
endowment
elephants
expecting
encircled
elongated
economist
editorial
expanding
groningen
greyhound
gunpowder
greenwood
gibraltar
generated
geography
governors
guatemala
gallantry
geologist
geraldine
guardians
guarantee
genealogy
governing
guangdong
graveyard
gathering
guitarist
godfather
gastropod
gottfried
gottingen
graduates
generally
gentlemen
grassland
gladstone
gesturing
gallagher
guerrilla
grotesque
guildford
granville
generates
graphical
genuinely
gradually
geometric
glamorgan
galveston
genevieve
galleries
gillespie
goldsmith
generator
griffiths
gratitude
guillermo
guangzhou
gutierrez
guillaume
goldstein
graduated
greenberg
guadalupe
gentleman
gardening
greenwich
gabrielle
gymnasium
greenland
gregorian
groceries
goodnight
victories
volcanoes
virtually
voluntary
villagers
valuation
valentine
violinist
violently
viewpoint
visionary
volunteer
violating
violation
vengeance
vancouver
vertebrae
variables
vineyards
vibration
virginity
venezuela
vocalists
versatile
variation
victorian
venerable
vanishing
vegetable
vibrating
variously
varieties
qualities
qualifier
qualified
questions
quivering
quarterly
zimmerman
tingling
theatres
thrilled
theology
trailing
tropical
theories
townland
tractors
thematic
tourists
treatise
trafford
thornton
twenties
talented
transfer
traveled
together
twisting
trillion
trousers
treasury
toulouse
tokugawa
thinking
thoughts
tomorrow
trembled
troubled
thompson
trumpets
tempting
trainers
tunisian
terrific
trophies
timeline
trinidad
titanium
tumbling
tactical
thursday
targeted
tattooed
tolerant
thirteen
twenty20
threaded
theodore
thriller
teammate
traverse
timeless
terminal
teachers
tracking
tiberius
tertiary
taxpayer
theaters
tensions
thumping
thankful
training
traction
tribunal
thriving
turnpike
tenderly
tortured
trapping
takeover
teenager
theorist
treasure
throbbed
trailers
textures
taxation
tempered
thorough
temporal
thanking
topology
terraces
tailored
throttle
triassic
turnbull
twitched
taunting
thinkers
turnover
thailand
tomatoes
township
terribly
tendency
totaling
textiles
thatcher
triangle
trustees
triggers
tapestry
teaching
threaten
tangible
toxicity
thousand
trenches
touching
translit
traveler
tolerate
tanzania
taxonomy
townsend
turbines
textbook
terrible
treating
trusting
treaties
transmit
towering
troopers
trombone
thirties
telecast
thwarted
throwing
tasmania
troubles
telegram
template
terminus
twilight
outcomes
overtook
ordained
obtained
operator
orbiting
opponent
outbreak
organist
overseas
outreach
olympian
operates
orchards
olympics
obsolete
overdose
observer
occasion
overseen
overcame
obsidian
offshore
obituary
outlined
ordering
opposite
organize
oversees
overture
outburst
optional
occurred
opinions
oliveira
offended
overview
ordnance
observed
overlook
outdoors
outright
offender
occupies
optimism
oblivion
outdated
operated
oriented
outgoing
oklahoma
orthodox
occupied
overhaul
obscured
offenses
orphaned
ordinary
outlying
outlawed
obsessed
olympiad
objected
outraged
outsider
observes
overhead
overcome
offences
official
outlines
organise
openings
organism
opposing
oriental
overland
offering
ottomans
obstacle
officers
overtime
operatic
original
ochreous
approval
airlines
auditory
airborne
accusing
attacked
additive
avengers
audition
apparent
arranged
analyses
applying
altering
attended
absorbed
avoiding
alderman
aqueduct
academia
armoured
accepted
aviation
accounts
artistic
affluent
artisans
actually
assuming
adjacent
ascribed
attempts
appetite
africans
austrian
afforded
animator
aircraft
agreeing
activity
authored
advocate
advanced
asturias
attitude
although
airfield
angelica
arterial
allmusic
adoption
absolute
armament
animated
approach
anywhere
awaiting
aquarium
altitude
atlantic
advances
abnormal
adjusted
adapting
aromatic
ancestor
approved
admitted
arrivals
argument
anchored
abducted
abortion
ambition
analysts
abstract
adoptive
andersen
agrarian
assessed
admiring
assisted
attained
averages
algerian
archived
amounted
artifact
arkansas
alliance
apostles
antennae
airplane
arteries
archduke
annually
academic
appealed
armchair
advisers
articles
arranger
academie
albanian
asbestos
addition
antennas
averaged
adultery
attached
augsburg
adriatic
adjutant
assassin
activist
annoying
absently
assaults
alphabet
ancestry
antilles
abruptly
attracts
affirmed
appleton
antibody
accessed
augustus
advising
addicted
appalled
abundant
actively
analogue
answered
advisors
asserted
alistair
atlantis
analytic
armenian
applause
ascended
atkinson
amateurs
autonomy
affinity
advocacy
atletico
assigned
accident
adorable
accuracy
assyrian
albrecht
athletes
american
athenian
arrogant
announce
appeared
adequate
almighty
adaptive
ambushed
anterior
agencies
airports
asteroid
archival
anything
attested
appendix
analyzed
allowing
aspiring
analysis
assemble
awakened
allotted
advisory
archives
anatolia
auspices
activism
achilles
attacker
activate
agitated
anglican
arriving
accurate
aluminum
antiques
alleging
abdullah
attorney
artworks
allergic
acquired
aberdeen
affected
arrested
angelina
airspace
auckland
americas
awarding
aperture
audience
assembly
adopting
acoustic
adelaide
achieved
aquatics
anderson
athletic
arguably
instance
infrared
inferior
improved
incoming
inspired
involved
increase
insisted
invaders
infinite
improves
indirect
invasion
intimacy
invented
illusion
interred
injuries
immortal
inflated
immature
informed
includes
interior
inventor
inducted
invasive
incident
inclined
islamist
intended
industry
insights
interned
inserted
incurred
immunity
inactive
imposing
institut
implying
initiate
isolated
italiana
inverted
ignoring
inviting
isabella
insulted
identity
inducing
indicted
immersed
imported
israelis
interval
imperial
infinity
iroquois
inherent
ignatius
instinct
invested
initials
internal
ignition
indicate
ignorant
injuring
internet
included
inwardly
integral
infantry
injected
inquired
intimate
islander
impaired
imagined
invading
impacted
illinois
istanbul
informal
improper
italians
isabelle
ideology
infected
insignia
integers
implicit
involves
innocent
investor
intently
intruder
imminent
interact
infamous
identify
insanity
interest
workshop
whitaker
waterway
weakened
woodward
weakness
westward
weekends
weekdays
wherever
wounding
worrying
wesleyan
wildcats
walkover
waitress
westwood
williams
wrestled
watering
wellness
withdraw
widening
wildlife
whatever
whipping
warships
wheeling
werewolf
watching
wardrobe
wandered
wireless
whenever
withdrew
wetlands
welcomed
warnings
wingspan
workings
wrinkled
winfield
woodland
whispers
whistled
waterloo
warriors
weighing
worsened
weddings
writhing
wielding
weighted
wrestler
windmill
wolfgang
winthrop
wrenched
wrapping
writings
wreckage
winnipeg
websites
wondered
weaponry
highland
hardware
hereford
horizons
hometown
holdings
historic
harmonic
hormones
harassed
histoire
homemade
honoured
hectares
hartford
hovering
hysteria
hurrying
hearings
heinrich
harcourt
hampered
humphrey
homework
hospital
heritage
horrific
hardened
highness
harrison
hawaiian
hastings
homicide
holidays
hardcore
halftime
hammered
hallways
honoring
hatfield
humanoid
holstein
historia
homeless
helpless
handicap
humidity
holiness
honduras
hesitant
headache
hardwood
heaviest
habsburg
highways
holloway
hawthorn
heavenly
heraldic
hannover
handheld
hopeless
hamilton
hypnotic
homeland
hardness
horrible
hillside
hoffmann
hydrogen
honorary
honolulu
harmless
hellenic
humboldt
hesitate
hardship
hinduism
handbook
handball
horribly
horsemen
humanist
hallmark
hispanic
hercules
husbands
hokkaido
honestly
humanity
hundreds
headline
habitats
humorous
handsome
hannibal
handling
helsinki
houghton
hostages
haunting
happened
flourish
follower
flagship
furrowed
frederic
freaking
familiar
frontman
flanking
fontaine
fortunes
folklore
formerly
fullback
freshman
fingered
founding
ferguson
finalist
feathers
flashing
flooding
formally
filtered
finishes
feminine
fielding
finances
failures
findings
forestry
financed
founders
fantasia
function
faltered
fiercely
furlongs
frowning
feasible
foreword
fugitive
frescoes
flotilla
frankish
farewell
faulkner
franklin
feminist
frontier
flexible
focusing
flushing
fortress
friction
filipino
foraging
forceful
fearless
featured
favoured
families
finished
francois
forwards
fountain
fuselage
festival
felicity
facility
followed
filmfare
forcibly
firearms
faithful
freshmen
february
fairness
fernando
fourteen
floating
flinched
flicking
frequent
fraction
forested
fragment
forensic
federico
fidelity
figuring
friendly
feelings
forgiven
fighting
ferreira
flanders
foremost
freiburg
facebook
fletcher
forearms
fabulous
forecast
francais
friedman
farmland
fleeting
falkland
features
fighters
flipping
frigates
flanagan
formulas
freedoms
factions
forehead
fastened
flinders
flirting
favorite
football
fracture
feedback
feminism
fixtures
famously
flawless
freezing
florence
bacteria
battered
benefits
blockade
bernardo
betrayed
bathroom
blinking
believed
blinding
backbone
brittany
bringing
blizzard
bradshaw
breathed
burgundy
brigades
backward
blushing
billings
basement
barracks
bullshit
bracelet
bellevue
branches
broadway
benjamin
breeding
brutally
ballroom
banished
bicycles
briefing
blending
basilica
bismarck
botswana
bautista
beaufort
bavarian
barbados
beaumont
brooding
bothered
blasting
backdrop
bolivian
bernhard
baritone
brownish
brackets
benedict
brussels
beatrice
boundary
blankets
bleeding
breached
business
boutique
bisexual
barbecue
bertrand
brethren
brushing
boarding
backyard
borrowed
billions
bastards
boroughs
blossoms
biscuits
bedrooms
bandages
brighter
belonged
biblical
bubbling
brewster
backpack
beverley
bordered
branched
blackish
bohemian
bouncing
behavior
bromwich
barriers
brisbane
brooklyn
becoming
botanist
barnsley
bancroft
buddhism
balanced
besieged
brunette
bankrupt
birthday
breuning
breakout
baseline
bulldogs
boulders
brighton
baseball
backside
backseat
bombings
beheaded
battling
bartlett
breakers
buddhist
berkeley
bradford
bachelor
bungalow
backlash
baptiste
bordeaux
battista
bathurst
breeders
blackout
brothers
bullying
bulgaria
belgrade
baroness
branding
baptized
buchanan
beverage
bulletin
blocking
bellowed
bypassed
bursting
builders
betrayal
barefoot
believes
believer
bitterly
balloons
bearings
blessing
building
baptised
barangay
budapest
biennial
browning
biennale
bestowed
brightly
breaking
##mology
##urgent
##inking
##icated
##eptive
##dition
##islaus
##taking
##erving
##static
##etched
##worthy
##tology
##eville
##stones
##iating
##riding
##arding
##dating
##chrome
##holder
##cation
##mering
##uaries
##ivated
##phobia
##fields
##lusion
##tained
##ulated
##planes
##broken
##nation
##liness
##iously
##giving
##istles
##ounded
##oteric
##ciency
##hering
##writer
##enburg
##linson
##iensis
##weiler
##listic
##ection
##cliffe
##ilised
##cuting
##bation
##enbach
##bridge
##lessly
##washed
##hunter
##raphic
##edance
##schaft
##torium
##hyllum
##weight
##chment
##vation
##mbling
##firmed
##ifiers
##person
##active
##urance
##bright
##hedral
##lellan
##phonic
##hopper
##ucible
##nology
##ignant
##market
##mation
##ouring
##bbling
##mental
##chenko
##ooping
##isches
##vating
##dation
##inging
##region
##nstein
##ogical
##ulsion
##monium
##lastic
##herton
##icular
##imated
##nified
##gement
##earing
##bourne
##graphs
##lating
##bution
##lewood
##saurus
##wright
##vances
##sworth
##ishing
##imeter
##bility
##isance
##heater
##roller
##urrent
##ometer
##aneous
##hesion
##tagram
##tative
##rigues
##ctions
##castle
##mussen
##rocity
##utable
##ential
##thorpe
##caster
##ctable
##ddling
##gingly
##sville
##graphy
##ulsive
##cology
##gating
##erated
##urized
##ogenic
##ration
##linger
##points
##arable
##riders
##scribe
##inates
##dicate
##kovsky
##erland
##erence
##titled
##resses
##metric
##turing
##runner
##nostic
##uously
##zzling
##diment
##gizing
##ifolia
##tangle
##ically
##hammer
##dridge
##enberg
##ocytes
##sphere
##rained
##jected
##iaceae
##mament
##ttered
##haling
##zation
##roving
##iation
##houses
##heimer
##aceous
##script
##marine
##lithic
##urable
##around
##usions
##inkles
##stream
##vision
##rangle
##umatic
##inator
##osomal
##logies
##stered
##making
##tility
##phobic
##eering
##basket
##finger
##rified
##utnant
##logist
##flight
##nesian
##enting
##titles
##inated
##elling
##chison
##biotic
##uation
##phones
##walker
##finder
##growth
##tarian
##efined
##ington
##itical
##thesis
##scopic
##ricted
##lation
##udence
##routed
##carbon
##orough
##ulator
##sities
##poulos
##lights
##boards
##leader
##hausen
##acious
##kovich
##ations
##keeper
##ennial
##iction
##ulates
##hedron
##berger
##ducted
##rzburg
##verted
##edging
##rating
##ending
##rogate
##ingham
##minate
##ifying
##master
##valent
##vinsky
##sfield
##tucket
##voking
##grants
##pathic
##mobile
##ophone
##tering
##logram
##rative
##hesive
##nished
##twined
##formed
##athing
##cratic
##riated
##placed
##screen
##icides
##berman
##optera
##ingdon
##fusion
##lander
##ailing
##lining
##atable
##quette
##iology
##tively
##ressed
##flower
##itated
##gative
##genase
##athlon
##miento
##tation
##lative
##coming
##uating
##kowski
##makers
##nction
##arians
##sation
##christ
##cision
##ischen
##brates
##church
##gation
##itaire
##ellant
##ground
##uising
##encies
##ieving
##icient
##loaded
##cating
##rrigan
software
swimming
superior
schuster
sprinter
splashed
succeeds
speaking
shocking
sparkled
sponsors
services
sherwood
spitfire
somebody
striking
statutes
sullivan
sapphire
splendid
subjects
showtime
shanghai
survivor
sediment
switches
spelling
silently
shooting
sentence
swirling
stations
semester
snatched
starters
siblings
stairway
squinted
strolled
soldiers
sweating
shredded
sanitary
surgical
sterling
stranger
scouting
stumbled
sudanese
sickness
shielded
secretly
seasonal
sprawled
shooters
sciences
sprinted
secluded
sherlock
startled
sporadic
superman
screened
slipping
scholars
seasoned
spraying
sampling
shoulder
sunlight
squealed
shortage
scrubbed
stuffing
servants
soloists
spilling
suitable
syndrome
strapped
stimulus
silesian
solemnly
somethin
straight
smallpox
saratoga
strength
steaming
stafford
seminars
sandwich
swimmers
searches
sarajevo
southend
sinclair
stadiums
seahawks
stalking
strongly
solitude
speedway
seminary
smashing
sidekick
sorcerer
smelling
squeezed
smoothly
showered
scottish
surfaces
syllable
screamed
shouting
snuggled
strategy
searched
scrapped
soothing
spartans
surfaced
slippery
sexually
snapping
sneaking
sculptor
settling
softness
slapping
springer
selangor
systemic
sighting
suspects
suicidal
standard
shuffled
splinter
separate
shepherd
santiago
swelling
skeleton
stressed
strictly
sensible
simplest
stirring
streamed
schumann
suffrage
supports
suppress
softened
sicilian
strained
shadowed
spanning
screwing
selector
shopping
severity
shifters
showdown
symbolic
speeding
singular
spending
subsided
stemming
sweeping
sulawesi
scarcely
specific
surveyor
sanskrit
shrieked
showcase
silenced
sentinel
subgroup
specials
spirited
sounding
salvador
smoothed
studying
stroking
samantha
solution
sequence
sardinia
sheppard
sparhawk
symmetry
secondly
severely
scramble
scissors
spectral
speeches
shivered
summoned
surveyed
stephens
scranton
socially
saturday
stephane
stricken
stitches
slovakia
shenzhen
sorority
stampede
susannah
slightly
stanford
siberian
suburban
stamford
squirrel
surgeons
skeletal
schwartz
supplier
swearing
sporting
senators
spotting
spitting
stopping
starving
suitcase
supplied
students
sniffing
sketches
sidewalk
simpsons
suggests
sparsely
survival
serviced
settings
scrutiny
securely
surround
schubert
softball
selected
shelters
socrates
stepping
skirmish
syracuse
struggle
specimen
starting
sunshine
spacious
slamming
stunning
scraping
salesman
shrugged
suriname
shetland
sorbonne
steering
securing
situated
sundance
shipping
scorpion
suffered
settlers
somewhat
skipping
salaries
savannah
subgenus
scandals
stockton
shipyard
stealing
suddenly
sabotage
stripped
stresses
sleeping
southern
semantic
shifting
supplies
scripted
stallion
shamrock
schedule
signaled
surprise
schooner
survives
swallows
stranded
scotland
suspense
shortest
stubborn
sympathy
shootout
switched
shandong
salzburg
spinning
stabbing
symphony
saunders
steadily
steelers
scenario
stylized
security
swinging
speakers
simulate
stirling
scarlett
sideways
seizures
somerset
starring
standing
survived
scanning
sessions
seminole
sinister
spectrum
sergeant
shipment
stronger
sheridan
sections
snowfall
societal
segments
slovenia
sculpted
streaked
symptoms
shutting
sticking
sneakers
squadron
spawning
solitary
stinging
sometime
smallest
strikers
supposed
youngest
yielding
yamamoto
yokohama
yugoslav
yearning
yeomanry
youthful
yearbook
yourself
yarmouth
normally
nakamura
numbered
napoleon
nobility
normandy
negative
nazareth
narrowed
narrated
newfound
narrower
nicholls
newsweek
navigate
nintendo
november
necklace
nominate
nostrils
nautical
nonsense
nobleman
nigerian
notation
northern
nicholas
nitrogen
nominees
narrowly
notified
nowadays
novelist
narrator
networks
nebraska
notebook
namesake
neighbor
nouvelle
novgorod
nagasaki
newcomer
numerous
nacional
newscast
noticing
nickname
national
nineteen
nutrient
maryland
markings
maitland
missions
minerals
melville
magnetic
meantime
marianne
medalist
michelle
meredith
motioned
mystical
maritime
managers
monsieur
mounting
moreover
metallic
manitoba
mobility
merchant
mortgage
monastic
migrants
montreal
midfield
mourning
midnight
majority
midlands
mattress
matching
moderate
mutation
molecule
mcgregor
mansions
mcdowell
muhammad
metadata
manpower
mcdonald
marriage
mattered
masovian
markedly
maturity
mckinley
movement
metaphor
memories
memorial
medieval
massacre
manifest
militant
mohammad
moisture
mainline
montrose
machines
militias
modelled
mentally
monetary
mosquito
meridian
membrane
michaels
mistaken
ministry
matthias
medicare
musicals
marjorie
mortally
marching
maximize
mannheim
murdered
mangrove
manifold
moravian
monterey
marketed
mandates
millions
momentum
muscular
monmouth
mountain
mariners
mckenzie
mentions
mayfield
monument
mustache
malaysia
mcnamara
melodies
minority
multiple
maharaja
mandolin
madeline
modified
mandarin
mouthful
mcintosh
marrying
mornings
mindanao
mercedes
mastered
monarchs
manually
marathon
measured
mcintyre
meetings
majestic
muttered
mitchell
migrated
mistakes
material
mohammed
matrices
mcmillan
mortimer
missiles
military
musician
magazine
marshall
mainland
minimize
miracles
morality
monopoly
margaret
mutually
magician
marquess
mediated
mistress
modeling
maneuver
motorola
monarchy
marriott
meanings
mechanic
monitors
medicine
murmured
mccarthy
mahogany
mongolia
mischief
minister
mandated
michigan
motorway
measures
maldives
monsters
maternal
managing
marginal
morrison
mushroom
mirrored
maverick
missouri
mythical
martinez
matthews
mustered
messages
moroccan
menacing
maintain
murderer
magnolia
utilized
untitled
unbeaten
unstable
universe
unlawful
unveiled
unlikely
unmarked
upcoming
unmanned
unfolded
unionist
upstream
uprising
upgraded
utilizes
uniforms
unsigned
umbrella
ultimate
uncommon
upgrades
uploaded
unwanted
unlocked
upstairs
unharmed
uniquely
urgently
unspoken
unbroken
underway
charters
computer
chimneys
customer
ceramics
creature
cyrillic
carleton
clicking
crushing
compiler
catholic
champion
charging
catching
cerebral
concrete
coverage
charting
coloring
covenant
cheering
compound
covering
carlisle
credited
calcutta
changing
corvette
columbus
capacity
clements
cornered
combined
currents
campaign
calderon
contrast
comedies
crumpled
consider
cruising
cardinal
channels
constant
cracking
crystals
consists
cherokee
comprise
clarence
callahan
chestnut
chrysler
colonies
charming
cellular
convicts
criteria
crawling
commands
converts
compared
clinched
cremated
cyclists
charcoal
classics
contract
civilian
chambers
cocktail
columbia
contents
computed
clarissa
connacht
commerce
clarinet
christie
connolly
cambodia
chairman
controls
choosing
clusters
courtney
chaplain
composed
compares
catering
cyclones
chilling
catalyst
convince
cartoons
commando
clarkson
caldwell
clinical
comedian
coherent
crippled
collided
cromwell
chickens
colorful
chuckled
canberra
campuses
canadian
creation
chargers
collects
commuter
coincide
congress
cannabis
crusader
crossbow
checking
churning
captives
chalmers
collapse
carnival
churches
consular
caucasus
convened
carrying
colossal
connects
concerns
capitals
circular
cupboard
cultural
cemetery
complain
claiming
conceded
coughing
composer
casualty
clifford
communes
contains
complete
crawford
citation
cottages
colleges
chloride
croatian
costumes
credible
converse
canceled
corridor
conclude
consumed
clearing
circuits
clerical
cabinets
commonly
copeland
conducts
competed
carriage
causeway
climatic
cappella
climbing
carriers
creative
claudius
cinnamon
clinging
carvings
comeback
crashing
creeping
coupling
countess
comrades
castillo
curtains
caressed
contacts
confined
confirms
confines
comments
cervical
carnegie
climates
conflict
converge
carousel
children
cylinder
cultures
coaching
complied
childish
cameroon
compiled
consoles
conveyed
clermont
calendar
cristina
confront
catalina
commuted
cassette
cleaning
cushions
counties
chandler
carthage
calabria
clenched
cosmetic
culinary
careless
ceilings
clutches
crossing
creating
calculus
conquest
cheating
cheyenne
colliery
continue
counters
centered
critical
chapters
confused
chanting
contrary
cautious
criminal
classify
cruisers
conserve
clapping
cochrane
cleavage
cornwall
coloured
consumer
contests
circling
chuckles
creators
category
combines
currency
cummings
chemical
cheshire
coventry
cavalier
cambrian
corporal
captured
councils
colonial
communal
cuthbert
counting
ceremony
colombia
charlton
citizens
casually
clothing
contempt
coliseum
concacaf
contexts
concerto
chatting
captures
courtesy
captains
crouched
commence
costello
carolina
cheerful
critique
concepts
cadillac
concerts
campbell
crescent
caroline
colorado
clutched
competes
licenses
launches
lebanese
lombardy
locating
ligament
launcher
liberals
landfill
listener
likeness
literary
lausanne
learning
lectured
locality
landfall
labeling
lawsuits
lacrosse
lawrence
lectures
limerick
lifetime
loosened
longtime
lipstick
lordship
leighton
latitude
licensed
laureate
lifeboat
listened
landlord
lingered
leaflets
lorraine
lifespan
labelled
lockheed
lyricist
linnaeus
leonardo
limiting
laughing
lifelong
linguist
learners
labrador
lobbying
luminous
listings
launched
lutheran
loyalist
lecturer
lifeless
lanterns
leinster
leukemia
location
language
lavender
lakeside
laughter
likewise
laurence
landings
lowering
laborers
literacy
lighting
landmark
lowlands
leverage
libretto
littered
journals
jennifer
justices
jamaican
javanese
jeopardy
jurassic
juvenile
jeremiah
journeys
jaenelle
jealousy
jennings
junction
johannes
japanese
juventus
juliette
judicial
jonathan
jacobite
judgment
johnston
drumming
deployed
dealings
deprived
derelict
donnelly
delegate
darkness
deutsche
doorstep
daughter
dragoons
diagrams
document
defences
district
donation
designer
detected
driveway
dramatic
depicted
disperse
doubling
distance
dragging
dungeons
depended
deceased
debating
depleted
delicate
detailed
detector
descends
davidson
deepened
dripping
dioceses
departed
dinosaur
defenses
droplets
diplomat
defining
diaspora
downtown
director
decision
delivery
devotion
downhill
distract
detained
drawings
divorced
december
dispatch
dynamics
disciple
discount
damaging
deposits
dropping
diamonds
dictator
doctrine
develops
degraded
definite
dressing
dockyard
dolphins
declines
distinct
discover
drainage
differed
deserted
drilling
disguise
drafting
doctoral
diseases
drifting
darkened
deputies
defeated
diverted
decorate
dwellers
downfall
distrust
disorder
dictated
declared
dwelling
decrease
democrat
discreet
disabled
domestic
destined
domenico
doorbell
dreaming
defended
diagonal
dreadful
defected
dangling
defender
detached
dialogue
divinity
division
despised
downward
disputes
delaware
dorothea
drenched
dortmund
deserved
delaying
demeanor
disgrace
disposed
dissolve
disputed
diabetes
dominion
diameter
designed
damascus
devotees
displays
dietrich
deciding
decisive
doubtful
dazzling
deported
disclose
dominate
debuting
destroys
defiance
disliked
demanded
disaster
dividing
deserves
discrete
directed
dialects
drummond
douglass
drowning
directly
danielle
database
download
delivers
dementia
daylight
describe
duration
dynamite
draining
dominant
deadline
drinking
diocesan
domesday
declined
distress
declares
disposal
disagree
patricia
playable
philippe
patience
possibly
paradise
pondered
possible
policing
printers
parishes
promoter
prestige
produced
pointing
passport
pharmacy
paranoid
punching
provided
pavilion
panicked
patriots
prospect
pinnacle
perceive
pembroke
purchase
purposes
populace
peasants
practice
pulitzer
platinum
premises
penguins
prentice
presided
pleading
petersen
pleasure
playback
pentagon
pilgrims
pathetic
pathogen
preached
prescott
punished
projects
password
proceeds
payments
peshawar
parasite
planners
pictures
position
progress
products
partisan
platform
potatoes
patented
panorama
priority
phillies
programs
persuade
prussian
pipeline
pamphlet
patterns
proposed
plotting
pasadena
previous
periodic
pressing
promoted
probably
populous
preserve
physical
panthers
phillips
preacher
prologue
profiles
portrait
paterson
prompted
plunging
peruvian
portland
polished
personal
parental
promotes
performs
powerful
properly
planning
praising
provider
prepares
packages
prolific
pronouns
peculiar
petition
prohibit
pendulum
publicly
painting
pastures
prophets
pristine
portugal
premiere
policies
pleasant
penelope
pregnant
politics
provence
problems
pretoria
plastics
phonetic
pensions
prophecy
paranoia
perished
painters
princess
polymers
pyrenees
plumbing
prostate
pressure
prevents
pictured
persians
proposal
packaged
pantheon
planting
patients
positive
provides
protocol
profound
promptly
paradigm
passages
pakistan
preceded
pavement
predator
precinct
property
pancakes
particle
pastoral
pursuits
precious
passions
peterson
protects
politely
printing
partners
pathways
province
peaceful
poisoned
percival
promised
portions
promises
pitchers
pounding
piedmont
palatine
ponytail
protests
paternal
pedersen
pitching
parisian
produces
pursuing
playoffs
presents
pioneers
pursuant
presence
parallel
piercing
proposes
plymouth
portrays
producer
proteins
provoked
prepared
prisoner
presumed
paraguay
princely
probable
pedestal
pleasing
portable
khorasan
kilkenny
kingston
knitting
knuckles
knocking
kneeling
kingsley
kangaroo
kowalski
kathleen
killings
kawasaki
kentucky
knockout
kitchens
keystone
kendrick
keyboard
kingdoms
knighted
kristina
kindness
kimberly
rotating
routines
revenues
relaxing
reversed
realises
railways
relating
restless
referees
rearview
refinery
receiver
rigorous
resolved
refining
redesign
radiated
ratified
retailer
response
reported
remarked
reformer
required
replaces
redskins
reactive
realised
recalled
rotation
relative
regained
rockwell
rebounds
randolph
restored
republic
radicals
reserved
responds
reducing
reminder
rankings
rumbling
relieved
reasoned
revealed
relevant
royalist
releases
rendered
reunited
robinson
regional
renowned
rochdale
rhythmic
recorded
renegade
regulate
roadside
registry
rustling
reindeer
reprised
renaming
replaced
requests
reviewer
relocate
resigned
requires
rattling
refusing
reliance
reversal
rhapsody
remotely
rosemary
reopened
recovery
retorted
resented
revision
removing
reflects
resemble
rainfall
regiment
residues
recently
roommate
railroad
reporter
resisted
rounding
rejected
rhetoric
reacting
resulted
repulsed
reissued
rosewood
rejoined
received
reformed
returned
remained
remember
randomly
reminded
reviewed
repaired
richards
regarded
research
receptor
repealed
religion
restroom
rescuing
reserves
relation
rewarded
rightful
reptiles
reaction
reactors
resident
revolver
resource
released
register
refugees
richmond
reverted
receipts
recruits
recounts
reynolds
restrain
revolves
recorder
remnants
readings
romanian
reworked
rousseau
realized
retained
russians
receives
residual
regulars
reckless
retrieve
referred
romantic
retiring
residing
recycled
respects
restrict
reverend
reliable
realizes
robotics
reassure
rebelled
reginald
rochelle
roderick
rational
reigning
ruthless
rhodesia
reaching
repeated
explorer
entrance
educator
epidemic
exciting
elegance
episodes
enlarged
emperors
enduring
eclectic
endorsed
eighties
editions
earliest
electric
engraved
emeritus
estimate
equation
existing
embraced
eternity
eastwood
envelope
enjoying
examined
evolving
educated
egyptian
entities
emphasis
economic
erection
elevated
enclosed
ethernet
estonian
efficacy
exceeded
epilogue
enlisted
encoding
exercise
engulfed
elliptic
everyone
entirely
expanded
excelled
exposure
embodied
employee
examples
examines
eastward
employed
equipped
ethiopia
excluded
enslaved
emotions
electors
evaluate
embedded
earnings
emission
equality
emirates
enrolled
existent
elephant
eighteen
eleventh
evacuate
eventual
exported
exploded
explicit
elevator
exhibits
exposing
exchange
evenings
einstein
evidence
executed
edmonton
entirety
expected
entering
eruption
endeavor
escorted
engraver
exploits
exterior
eurasian
enormous
eligible
ensuring
explores
emmanuel
election
eyebrows
elements
expenses
enforced
european
enabling
earrings
examiner
energies
expelled
escaping
emerging
ensemble
explains
enriched
extended
everyday
extracts
erebidae
explodes
engaging
electron
entitled
excerpts
explored
engineer
extremes
external
employer
essendon
embarked
enhanced
graduate
gigantic
guidance
growling
giggling
grateful
guessing
guerrero
ghanaian
gretchen
goodness
gertrude
georgian
graphics
graceful
giovanni
greeting
germanic
globally
guarding
gameplay
greenish
generate
galactic
groaning
geometry
genetics
gambling
gleaming
grasping
generous
gestured
grabbing
grumbled
glaciers
griffith
governed
giuseppe
gasoline
galaxies
gingerly
gorgeous
georgina
gangster
goldberg
garnered
geoffrey
glendale
guinness
goodwill
glorious
godzilla
gathered
grouping
genocide
graffiti
geologic
galician
gonzales
grandson
guardian
gradient
grenades
grounded
gripping
gujarati
grinding
granting
grimaced
governor
grossing
gardiner
gardener
generals
gonzalez
grinning
garfield
gestures
galloway
greatest
guernsey
glancing
gershwin
garrison
garments
veracruz
valentin
villains
vomiting
vibrated
victoria
variants
vaccines
valkyrie
vicinity
villiers
violated
velocity
verified
visiting
variable
visually
vittorio
vertical
ventures
vehicles
vanguard
volatile
vascular
valencia
ventured
venetian
viscount
vertices
vincenzo
vineyard
visitors
valuable
variance
vocalist
veronica
versions
vacation
vladimir
vigorous
vanished
virginia
validity
verandah
veterans
vampires
violence
volcanic
villages
quarters
quarries
quantity
question
quadrant
zaragoza
zhejiang
zimbabwe
zeppelin
xinjiang
tracker
tablets
therese
turnout
telecom
theatre
teaches
treated
torches
thought
tonight
torment
testing
tackles
tourist
twinkle
thirsty
tighten
trolley
toronto
tangent
tiffany
tactics
turning
trenton
topical
turmoil
travels
tourism
terence
tickets
tenants
tipping
trivial
threads
twinned
typical
tripoli
touched
tubular
triumph
trailer
trustee
traffic
turrets
turtles
textual
thieves
teacher
tasting
totally
tattoos
takeoff
travers
tristan
theater
tramway
tabloid
tension
titanic
trilogy
turkish
terrace
tribute
tuition
trumpet
tricked
talents
teenage
totaled
trailed
tracing
thomson
tempted
trickle
trapped
thrusts
tibetan
tapping
trooper
thanked
taliban
tempest
telling
teaming
tuesday
tumbled
titular
thumped
tabitha
tianjin
thyroid
thereby
tolkien
thistle
turbine
tucking
threats
texture
tallinn
thinner
torture
tsunami
tracked
twitter
traitor
thereof
textile
touring
theorem
tissues
temples
tending
tripped
testify
theodor
tariffs
tighter
tongues
traders
tremble
taunton
toilets
twelfth
trouble
trading
tractor
treason
tuscany
tatiana
tornado
trieste
topping
tilting
tierney
tragedy
tossing
tunisia
tangled
tbilisi
teasing
tobacco
torpedo
thierry
theresa
trainee
tackled
trident
trusted
tainted
trained
talking
through
typhoon
twisted
timothy
thermal
trinity
trainer
towards
transit
ticking
therapy
tequila
trigger
terrain
tightly
timbers
toppled
thunder
tearing
targets
trimmed
templar
tunnels
tugging
thicker
tallest
touches
tribune
orlando
optimal
opposes
outpost
omitted
osborne
offered
options
october
outlook
orphans
omnibus
obvious
oblique
ongoing
okinawa
observe
origins
olympus
oversee
oceanic
outcome
orleans
oneself
offence
overall
offices
obscene
outline
onstage
onwards
octopus
olivier
outward
ottoman
oversaw
outlets
orderly
optical
opinion
ordered
olympia
officer
outputs
obesity
operate
organic
overrun
outrage
opposed
oakland
orbital
obliged
odyssey
outlaws
offense
outfits
orioles
orchard
outdoor
ontario
overlap
oceania
olympic
opening
outside
ominous
onboard
objects
obscure
ashland
aviator
already
autopsy
algiers
applied
arousal
almeida
allegro
allison
antigen
advance
amateur
artists
adverse
alleged
abraham
archway
assured
applies
arrests
ashamed
awarded
atheist
achieve
assumed
anchors
awkward
aramaic
apostle
auction
arizona
accused
annexed
asiatic
ancient
andover
acclaim
african
arrival
annoyed
alarmed
antwerp
atlanta
airport
average
adviser
admired
armando
assault
astoria
amusing
allowed
answers
assigns
agustin
airways
alumnus
analyst
artwork
aroused
asshole
abandon
anomaly
antigua
analogy
amassed
artemis
amnesty
amazing
anytime
augusto
america
angular
awaited
amnesia
approve
arrived
analyze
armenia
anymore
apparel
alfredo
addison
authors
antoine
actions
avoided
animals
attempt
alberta
acquire
ammonia
algebra
amherst
abdomen
aspects
aquatic
affairs
advised
advises
accents
auditor
against
arrives
alerted
acronym
adorned
address
angered
aground
andreas
airplay
archaic
android
austria
adopted
anybody
anxious
arrange
assumes
anthony
ambrose
account
airlift
armored
arcadia
asphalt
algeria
augusta
article
avenues
archers
appoint
amadeus
absence
airship
accepts
adjunct
anarchy
attache
another
arsenic
academy
anguish
apology
aligned
advisor
adapted
ability
albania
amended
alabama
antonio
acheron
annette
awesome
assists
auguste
adamant
ashford
anxiety
admiral
alcohol
athlete
abusive
anaheim
arising
amounts
altered
attends
abigail
antique
audible
angeles
airline
affects
archive
arguing
alright
antenna
anatomy
attacks
ambient
actress
alvarez
arsenal
archery
amongst
arching
arabian
appeals
alfonso
andrews
antioch
angrily
alberto
antonia
attract
asserts
appears
invalid
isotope
inspect
ibrahim
impress
induced
injured
illness
insults
israeli
initial
insight
insider
inherit
innings
imports
inhaled
imagine
islands
issuing
illegal
isolate
invoked
ireland
implied
imagery
improve
ignores
illicit
instant
incomes
islamic
indians
iberian
ignited
intends
instead
immense
imaging
infused
inspire
insulin
infancy
indiana
ignacio
imposed
inverse
incline
insects
impulse
invaded
ipswich
iceland
insists
implies
inmates
inferno
insides
invites
informs
inquiry
involve
install
italian
iranian
impacts
impetus
interim
inhabit
indices
italics
incense
integer
implant
infants
imprint
indoors
include
inhibit
indexed
inhuman
ideally
intense
invited
ignored
wishing
western
windows
wealthy
workout
webster
wembley
waivers
widowed
written
welfare
walters
widened
wizards
wetland
washing
winning
warship
winters
wilkins
whereas
welding
whereby
weekend
warning
wyoming
watkins
warlord
writing
whitman
woodrow
watford
willard
whiskey
weekday
weights
wrought
winding
whisper
wounded
winston
whitley
wherein
website
wheeler
welcome
weaving
whistle
warming
wharton
wheeled
wrapped
witches
wrongly
weeping
watered
weather
whoever
wearing
witness
walking
worried
watched
winners
workers
weighed
worries
whaling
wilfred
whipped
warwick
writers
willing
wrecked
without
wiggled
whimper
wanting
wickets
wichita
windsor
wendell
wallace
whitish
warring
wrexham
wrestle
wilhelm
walsall
walkers
warrior
worship
wasting
whirled
warlock
watches
weapons
whitney
william
wonders
warfare
winkler
walkway
wartime
wedding
waiting
winslow
wexford
whether
warrant
working
helping
herring
horatio
hearted
heavily
heading
however
habitat
heiress
hurling
holland
hermann
hideous
hodgson
holster
hilbert
healthy
hybrids
hitting
hunched
holiday
happily
husband
handler
hostess
haitian
horizon
heights
honesty
hosting
halifax
herrera
holding
hopping
heating
hygiene
hillary
hundred
honours
hotspur
hilltop
hunters
hartman
hostage
hoffman
hurting
hormone
houston
haggard
hiroshi
hectare
horrors
hanging
herbert
heather
handles
huddled
harriet
hamlets
hopkins
healing
hideout
handful
howling
hammond
hepburn
hottest
hardest
humming
heavens
himself
hacking
higgins
hampson
hurried
helpful
helmets
hornets
hampton
hissing
harshly
hostile
hickory
hyundai
harbour
hackney
heroism
heavier
highway
hawkins
happier
hurdles
hugging
hospice
housing
halfway
history
haunted
hauling
harness
handing
hussein
hallway
hanover
heroine
harvard
hayward
hovered
herself
heaving
huskies
handled
hendrix
holders
hidalgo
hearing
hunting
happens
handgun
honored
harmful
hancock
highest
hazards
harmony
hamburg
haryana
harvest
hubbard
hartley
honneur
hastily
hussain
hackett
harding
hungary
hopeful
hoisted
foolish
fascist
francis
florian
frantic
fastest
fabrics
fatigue
filippo
forearm
flemish
fledged
freddie
failure
feeding
formula
factors
fantasy
focused
fertile
forgive
fairfax
flashes
funeral
fontana
finance
funding
fingers
frontal
fitzroy
fielder
fleeing
females
finnish
flowers
further
freedom
fragile
frankly
formats
flavour
fearful
folding
focuses
forming
filters
finland
figured
fitting
federer
fiancee
feeling
felicia
furnace
fishing
flashed
frowned
freight
favored
frazier
faculty
flowing
factual
falling
flavors
fathers
fairies
fatally
forrest
foundry
fukuoka
flipped
freeway
facades
flushed
founder
flooded
framing
fighter
freeing
firearm
faintly
fourier
farther
floated
florida
farming
fucking
fordham
fossils
fearing
fronted
fremont
finally
fiction
flicker
fleming
flanked
fascism
falsely
forever
fission
ferries
fencing
farrell
fitness
forsyth
flutter
federal
fixture
fellows
foliage
feature
fashion
ferrara
footage
feather
flights
forcing
footing
freeman
finding
forests
freaked
furious
flaming
foreman
fallout
fishery
fortune
ferrari
feldman
forster
forbade
failing
fielded
flicked
frances
friends
falcons
figures
firstly
flopped
fifteen
fifties
frigate
foreign
fredrik
forward
filling
fumbled
frankie
factory
farmers
founded
filming
follows
futures
fridays
faction
fuscous
fulfill
fischer
freshly
buckled
barclay
bohemia
barrels
blowing
bonfire
bahrain
bermuda
booking
bosnian
brandon
bicycle
bishops
branded
budgets
bedside
baldwin
bangkok
benches
banning
breakup
breaths
brendan
bearing
bullock
bulldog
boasted
baskets
breasts
bridges
berries
blanche
booklet
burnett
briefly
burnley
broncos
brother
bolivia
brushes
bathing
britten
bottoms
brushed
babylon
bassett
battery
becomes
benefit
banking
bingham
bahamas
bandits
barbara
bombers
beijing
bidding
billing
browser
burying
blasted
bounced
brought
ballads
boulder
bouquet
blinded
bromley
bourbon
barnard
bavaria
baptist
builder
breadth
batting
bounded
berwick
buttons
brewers
burmese
broadly
brennan
billion
belongs
beneath
belgian
beatles
bracket
boredom
beverly
ballast
belarus
beetles
blessed
boating
booster
because
bedford
beckett
biggest
batavia
bottled
burundi
bahadur
bonding
behaved
bruised
balloon
bizarre
backing
bracing
blazing
ballard
bottles
booming
between
bombing
belfast
banging
brewing
bearded
bladder
belgium
britney
balkans
breaker
boosted
bedrock
bassist
biomass
bradley
breathe
blended
bolivar
bristol
bravery
blogger
battled
blossom
blushed
baronet
biology
bankers
broader
boarded
beaches
bulging
bowling
beyonce
baroque
bennett
borough
blankly
baffled
bridget
bedroom
banquet
buddies
barrett
bellamy
blindly
barrage
blurred
binding
barrier
beloved
brothel
british
butcher
brigade
believe
brewery
bonuses
botanic
bubbles
benfica
bergman
batsman
blaming
barnett
bundled
buzzing
battles
boiling
blazers
bologna
burgess
busiest
balcony
balance
bullets
beliefs
belmont
barking
beating
buckley
baseman
begging
brianna
beaming
buffalo
bernard
bending
bananas
bengals
bentley
bruises
borders
bundles
brittle
burning
bastion
bipolar
bertram
burnham
burials
blurted
banners
besides
bargain
blinked
bengali
baptism
ballots
blanket
brigham
boycott
biplane
blocked
braking
balfour
burrows
burkina
boilers
baggage
bastard
baghdad
britain
bethany
bandage
bribery
betting
blooded
belinda
##olved
##berry
##heads
##evich
##enary
##rdial
##rigue
##tries
##plane
##liche
##hurst
##ening
##chule
##ately
##strel
##mount
##arion
##bered
##ingen
##vable
##thing
##rgeon
##pired
##rissa
##ivist
##rwood
##vance
##raphy
##rting
##otype
##ulent
##ntine
##bbies
##ining
##trics
##bella
##grade
##insky
##bians
##istic
##erted
##tones
##lence
##venor
##lings
##cloth
##dents
##cence
##zione
##cript
##horpe
##shima
##iting
##crats
##otted
##ified
##relli
##stand
##ragan
##lving
##rella
##itate
##mpton
##pling
##otide
##meter
##sberg
##ostal
##media
##ifies
##water
##kumar
##oides
##ester
##clave
##oured
##pment
##qvist
##bolic
##henko
##iidae
##press
##osity
##aceae
##dberg
##words
##aster
##ishly
##hetic
##duced
##rated
##opsis
##fting
##sdale
##ulous
##cards
##falls
##agawa
##rogen
##using
##ading
##chase
##leton
##combe
##ocene
##lston
##erine
##ished
##terol
##chang
##tions
##phila
##opped
##drive
##naire
##tower
##space
##ative
##ently
##lines
##tment
##mberg
##dling
##ments
##lands
##erson
##wheel
##rries
##watch
##scent
##atory
##frame
##oning
##aring
##estra
##ooped
##swick
##boats
##virus
##scope
##oslav
##ental
##nated
##puram
##rasia
##eving
##nburg
##ators
##nesia
##vered
##anies
##xious
##truct
##arina
##enity
##cable
##ulton
##board
##grate
##rrard
##world
##going
##ssion
##ucher
##ching
##etano
##usion
##wives
##phate
##ances
##fight
##ister
##riety
##backs
##acker
##dding
##thest
##fires
##forth
##lkirk
##tails
##cious
##ungen
##udged
##notes
##itzer
##overs
##tling
##iable
##force
##rrado
##logie
##write
##iente
##rites
##dorff
##nator
##utter
##train
##ering
##itung
##storm
##roved
##idium
##mania
##uated
##birds
##uting
##grant
##sbury
##polis
##antes
##ities
##fying
##iving
##viere
##tures
##oxide
##burgh
##liest
##imate
##inian
##ctric
##copic
##nical
##tidae
##ously
##ovich
##lford
##nting
##ition
##mined
##brook
##iring
##dable
##guard
##posed
##fahan
##smith
##rrick
##marks
##lbert
##table
##arium
##lates
##belle
##ywood
##nikov
##forms
##dilly
##yoshi
##bound
##inski
##nidae
##llins
##sford
##orous
##brick
##landa
##mates
##tooth
##essed
##rford
##esian
##izzly
##tosis
##lidae
##inium
##pping
##cycle
##erate
##olate
##brush
##ifier
##cured
##grass
##jevic
##erina
##ignon
##dates
##cross
##ience
##neuve
##mento
##andra
##nberg
##tance
##ology
##paper
##court
##pants
##grave
##ville
##flies
##lizer
##elled
##ction
##gaard
##nessy
##zquez
##icate
##fixed
##stone
##actic
##gonal
##guchi
##creen
##ulata
##enham
##aries
##athan
##sport
##brand
##liner
##cytes
##mbled
##mming
##stein
##worth
##fleet
##izing
##itude
##icles
##field
##raine
##oping
##iness
##itive
##drich
##crest
##music
##nagar
##ation
##shaft
##tight
##istan
##aghan
##leigh
##rooms
##while
##power
##puted
##gical
##borne
##acies
##sters
##tness
##uding
##utive
##rosis
##isman
##inate
##print
##craft
##avian
##mable
##dance
##ament
##champ
##anial
##ingly
##heart
##urity
##acing
##matic
##rrier
##ettes
##iques
##acion
##ctive
##astic
##stadt
##river
##kling
##ammed
##guide
##chaft
##berto
##igate
##stown
##endez
##rable
##lovic
##nding
##cased
##laise
##trust
##shire
##clops
##iface
##eller
##parts
##sions
##graph
##ended
##swell
##pathy
##hesis
##antly
##erian
##llary
##enter
##ntial
##phine
##merie
##phone
##ution
##amine
##sight
##tered
##tania
##brate
##gence
##uddin
##piece
##ridge
##liffe
##lysis
##tream
##atics
##under
##udeau
##color
##ality
##selle
##eland
##ische
##ntino
##amina
##cheon
##grove
##osing
##shore
##ayton
##ginal
##ulate
##arian
##arney
##ailed
##owski
##cheng
##woods
##vious
##class
##jiang
##lance
##ovsky
##iance
##ciful
##sling
##break
##ssing
##bbled
##holes
##ritan
##tical
##ffled
##dgets
##chner
##ander
##orted
##hered
##meric
##ioned
##lists
##trick
##jured
##group
##apple
##bourg
##stick
##croft
##onate
##rians
##omics
##aging
##urian
##ifice
##lette
##ating
##pkins
##ronia
##uming
##anger
##umber
##tonic
##ptive
##isson
##uring
##cting
##metry
##evsky
##illon
##ports
##eborg
##hosis
##havan
##meyer
##gging
##achal
##anian
##atter
##drick
##phile
##tting
##umble
##ising
##stock
##oting
##recht
##ually
##sable
##ivate
##codes
##endra
##ision
##logue
##sitor
##nging
##tford
##kulam
##stems
##logic
##mouth
##claim
##rnier
##bling
##stead
##lland
##tched
##layer
##lding
##eding
##bular
##elles
##rator
##ility
##rrell
##taken
##night
##light
##ional
##horse
##agger
##sonic
##ssler
##ggles
##lined
##bilis
##ncies
##ticus
##ausen
##tique
##gible
##ckman
##glass
##shing
##erman
##maker
##hardt
##ivism
##bread
##quest
##fully
##cliff
##elial
##nched
##gnant
##gling
##tland
##cture
##cated
##proof
##asian
##quent
##icide
##dalen
##ecure
##ensis
##ested
##right
##moral
##skaya
##sboro
##nosis
##istle
##rates
##iated
##block
##waite
##unced
##lated
##plate
##woman
##zzled
##ented
##haven
##glers
##lling
##gated
##athic
##sible
##eries
##tized
##rized
##iling
##icing
##ption
##dened
##culus
##esses
##oulos
##point
##strom
##shida
##chers
##aking
##nally
##reate
##schen
##rling
##aurus
##kovic
##ogist
##baldi
##odies
##owing
##bruck
##balls
##eased
##iform
##folia
##itors
##islav
##lberg
##opers
##onale
##books
##sburg
##pheus
##erton
##flict
##erved
##cking
##entes
##khand
##meral
##rance
##tated
##arded
##bbing
##house
##works
##plify
##aling
##rsten
##urbed
##drome
##ddled
##genic
##lized
##chman
##rland
##blood
##ratic
##ctors
##elman
##child
##rence
##ghton
##harat
##lices
##hawks
##inger
##heard
##ement
##front
##nable
##verse
##ively
##ivity
##tious
##inton
##cular
##rring
##tters
##quist
##encia
##games
##uance
##typic
##lster
##ories
##roids
##emann
swapped
sizable
stamped
strides
sipping
shorter
scenery
stalker
straits
servant
stretch
silesia
semitic
signals
striker
seismic
styling
sinatra
starter
sellers
seminal
subsidy
scratch
shadows
sockets
shepard
swallow
samsung
suspect
stimuli
slipped
strings
sichuan
stories
shutter
smiling
sincere
spreads
sniffed
seasons
started
sixties
surname
slavery
stating
statute
studies
sensing
sinking
stephen
seminar
surfing
somehow
staring
slumped
snorted
sterile
singles
sleeves
seniors
surface
shotgun
swimmer
scholar
squared
slender
stefano
startup
sobbing
suicide
station
several
shelves
species
streaks
spanish
section
soprano
sealing
smacked
subunit
spirits
spanned
segment
sisters
shortly
skipped
surgery
swaying
strange
sources
shifted
storing
suffolk
scoffed
solving
snooker
special
soaring
science
shooter
spokane
supreme
stubble
shadowy
schmidt
stewart
sadness
subject
sleeper
squeeze
shining
sibling
sparkle
shapiro
slovene
staples
sampled
slowing
survive
stiffly
seeking
skipper
sweetie
smarter
spartak
service
sampson
sailors
seizing
stadium
suzanne
spheres
shoving
swirled
stacked
savanna
staying
summers
stomped
strauss
sailing
sprayed
snarled
streets
susanna
secrets
smelled
systems
sparrow
swelled
steiner
sounded
searing
stunned
shatter
scarred
stained
springs
sheriff
saharan
shelter
sucking
singers
scanner
sunrise
stomach
similar
scooted
spoiled
simpson
salazar
soldier
stopped
stanton
stepped
succeed
severed
seville
sweetly
sending
snapped
suggest
sanford
somalia
strokes
shivers
sitting
soaking
stephan
setting
stevens
sarawak
signage
sermons
schwarz
stilled
stifled
sneered
siberia
surveys
skimmed
society
shrines
stemmed
scented
sargent
smashed
sarcasm
shifter
shuttle
steered
scraped
sustain
sublime
scanned
shudder
spectra
sabbath
samples
smeared
sanchez
salvage
sparked
screwed
seventy
subdued
shaping
skyline
seattle
stalled
spatial
singing
shields
speaker
scowled
strains
selling
stabbed
skating
strands
striped
sundays
scooped
sectors
seaside
symbols
suburbs
surreal
shankar
serious
scarlet
summons
swindon
sliding
specify
stadion
stealth
squares
success
strikes
swansea
scaling
singled
spilled
shouldn
stripes
selfish
sumatra
seeming
sighted
stirred
synonym
savings
serpent
slammed
simmons
satisfy
sponsor
spiders
summary
settler
signing
stormed
shannon
sevilla
scrolls
stalked
sourced
shallow
slicing
seymour
someday
seating
slapped
selects
soluble
smoking
siemens
sudbury
settles
suppose
sensual
serbian
skinner
shipped
staffed
solvent
spelled
senator
serving
shelley
showing
sensors
sandals
shuffle
seconds
support
storage
settled
statues
staging
seizure
scripts
salford
starved
shocked
silicon
screens
shaking
sensory
serials
sweater
stature
societe
streams
surplus
spencer
swiftly
schultz
swollen
swedish
secular
shelton
stryker
showers
soloist
solomon
sequels
stroked
steward
starred
screams
stanley
stables
steamer
staunch
session
spawned
sixteen
stellar
smirked
steamed
spurred
spartan
santana
studied
sloping
sheldon
soviets
stocked
sorting
stumble
student
shouted
someone
stuffed
slashed
seventh
sulfate
sanders
skinned
spotted
sausage
scandal
surgeon
sweeney
sighing
skilled
samurai
shirley
sharply
suffers
sharing
studios
suspend
secured
segunda
seekers
silvery
servers
silence
schools
sawmill
sabrina
smaller
secrecy
schemes
scoring
sherman
skaters
simpler
senegal
seafood
yankees
yerevan
youtube
yelling
yiddish
yucatan
yeshiva
younger
yanking
yielded
netball
nikolay
nowhere
nipples
nesting
nanjing
noticed
nemesis
nouveau
noodles
narayan
nations
needing
nucleus
needles
natalie
nitrate
nilsson
nairobi
norwood
niccolo
netting
navarre
nothing
newtown
newbury
niagara
nichols
numbers
neville
norwich
neutral
newport
nightly
naughty
neurons
nearing
nominee
nestled
natural
notices
neptune
nikolai
nicolas
neglect
nursing
nodding
novelty
nonstop
navarro
natasha
nirvana
nigeria
natalia
neumann
netflix
norfolk
nuclear
nursery
notable
nielsen
nervous
notions
notably
network
neutron
natives
nearest
namibia
narrows
newborn
novella
neither
nominal
nomadic
morocco
mildred
million
modeled
michael
maltese
marines
mathias
monkeys
mongols
maximus
minimum
minerva
marathi
mayoral
meyrick
measure
mixture
malcolm
migrant
mclaren
mariana
morales
melting
morally
marches
mueller
massage
michele
machine
marquez
mermaid
mohamed
markers
meadows
miocene
mallory
mcbride
matilda
mastery
monarch
miracle
motions
marxist
mexican
missing
midtown
mathews
mixtape
messiah
mustard
marking
massimo
markets
mergers
mouthed
marital
madison
mandela
moniker
mendoza
mounted
mcguire
macleod
messina
martins
mikhail
minions
muscles
mandate
mayfair
marlene
motives
melodic
modular
missile
marshes
maguire
muscled
marcelo
merritt
maynard
mortals
messing
myanmar
matched
malaria
marshal
mosques
methods
monitor
myspace
montana
marries
mapping
mercury
mahmoud
melanie
milling
marsden
mention
martial
muffled
mcqueen
monster
mutants
manfred
members
morning
mollusk
monsoon
mansion
mundane
munster
mocking
merging
majesty
merrill
mustafa
muslims
midwest
murmurs
musique
marquis
maximal
moments
mankind
mystery
moaning
masonic
milford
militia
maestro
murders
mcmahon
meeting
marilyn
mammals
midland
melinda
maclean
manners
marlins
mirrors
mineral
martian
madonna
manning
mcgrath
masonry
mission
modules
memoirs
manager
markham
mustang
married
murdoch
marched
martina
montagu
maurice
mumbled
magical
marxism
malvern
maureen
monique
mingled
mckenna
matches
matthew
massive
musical
monthly
migrate
malacca
madeira
madness
malabar
manages
meaning
montane
mothers
museums
matters
munchen
mistake
minutes
message
martyrs
mascara
minimal
marissa
moldova
maxwell
martini
macbeth
memphis
maccabi
mammoth
margins
magnate
mondays
mariano
melissa
medical
managed
miranda
minogue
masters
methane
maximum
uppsala
upgrade
unicode
upscale
unaware
useless
unusual
unhappy
uruguay
utterly
uniform
uttered
unarmed
upwards
unicorn
updated
uranium
upright
ushered
upstate
utility
unnamed
usually
utrecht
updates
ulysses
unitary
undergo
unknown
unified
ukraine
uniting
unclear
uncanny
utilize
uncover
urgency
clashes
captain
candles
claimed
cypress
chatter
columns
chelsea
crowned
calvert
cynthia
cowboys
chewing
couples
castile
closing
choices
cruiser
creator
clarify
chiefly
calcium
ceramic
calhoun
costing
cougars
cleaned
catcher
claudia
curtain
concern
cleared
connell
conical
carried
creates
contain
celtics
crashes
chicago
conquer
comical
corners
courses
custody
courage
crawled
charity
chapels
cabaret
convict
cockpit
crashed
charter
colbert
contend
clients
centers
circled
carlton
country
captive
consent
chateau
curated
clinton
curtiss
channel
cluster
centred
convert
coaches
celaena
caliber
colours
cardiff
capsule
carnage
corrupt
console
convent
coroner
cecilia
checked
canteen
clement
crawley
climbed
clearer
carmine
colombo
coating
contest
cyclist
crystal
crusade
cheered
chances
cuisine
concept
camilla
chester
condemn
corpses
content
crossed
chapter
carries
company
casting
cutting
council
chaired
caitlin
clapton
ceiling
conform
cardiac
clicked
cramped
carving
cheaper
confirm
craters
commons
clothed
chassis
catches
casimir
chilled
curious
chandra
cheated
clauses
cornice
consort
commune
cantata
consist
cornish
cornell
croatia
crested
comment
coconut
cumbria
creaked
costume
careful
concert
changes
charlie
calming
classed
clemens
citizen
cookies
corbett
coleman
cabbage
crowley
created
cooling
cartoon
curving
cholera
circuit
chariot
chamber
cascade
counter
circles
chennai
camping
centres
crimson
climate
charred
corinne
cannons
cradled
critics
crowded
cadence
caravan
current
cleaner
conduct
capture
cinemas
causing
coaster
courier
caspian
calgary
college
coughed
colonel
chuckle
combine
croydon
crimean
certain
charges
candace
coulter
calling
credits
clouded
clamped
concord
cousins
crucial
chaotic
chaplin
clapped
cringed
castles
conceal
chilean
cottage
charged
collect
cruises
command
cooking
cassidy
compass
coyotes
colored
chronic
catalog
crosses
canning
corsica
contact
confuse
consume
cryptic
chasing
century
citadel
chopper
casinos
catfish
carpets
chopped
central
context
choking
classes
crooked
coastal
crafted
comedic
careers
chatham
comrade
christy
chancel
chicken
covered
classic
cocaine
coinage
coached
claudio
compose
canucks
closest
clinics
cunning
caution
cleanup
cochran
carroll
copying
collier
chinese
coveted
collins
carrier
clifton
christi
colleen
compact
compute
clarity
control
cameras
counted
cologne
culture
capital
counsel
catalan
cancers
cupping
confess
cricket
cycling
craving
capitol
condoms
clearly
changed
cynical
capable
carlson
cyclone
compton
camille
complex
cushion
clothes
clemson
charted
commits
cameron
customs
cursing
curling
coupled
charles
compare
clasped
cabinet
chimney
correct
carolyn
charley
cruelty
chained
chapman
chemist
chorale
closure
comfort
cypriot
curator
compete
closely
cavalry
cordoba
convoys
cracked
connect
consult
clashed
clayton
celeste
chooses
clipped
caracas
crushed
lightly
letters
lambert
leaning
lillian
lizards
lucifer
logging
laundry
lottery
lesbian
luciano
legions
learned
liberty
lacking
leather
leveled
lesions
luggage
leaving
legends
looming
lurched
lindsey
limited
lineage
lawyers
lattice
langley
loosely
loyalty
lucille
library
lending
luckily
leopard
labeled
located
lullaby
lurking
licence
lodging
lucinda
locally
leading
lowland
linking
lebanon
letting
liberal
lawsuit
leaking
longing
lyrical
langdon
literal
leaders
landing
leaping
leasing
looting
lorenzo
lineman
leftist
leopold
largest
longest
license
leonard
leipzig
logical
lantern
lunatic
looking
liturgy
lecture
lucknow
lakshmi
lindsay
layered
laughed
loading
lansing
locking
lombard
liaison
lengthy
loretta
lazarus
lengths
lessons
legally
lighted
lobster
lasting
licking
leisure
liquids
lighter
lithium
likened
leagues
lucivar
lowered
latvian
lifting
lincoln
liberia
laurent
lateral
lookout
listing
lobbied
largely
johnson
jackson
jumping
jenkins
jaguars
jiangsu
jocelyn
johanna
jamaica
jogging
jesuits
justice
judging
jakarta
juniors
jillian
journey
jacques
juniper
jessica
jimenez
justify
joachim
jasmine
jeffrey
justine
joining
jarrett
javelin
juliana
january
janeiro
jackets
jericho
jubilee
jealous
jewelry
judaism
jointly
jerseys
joaquin
johnnie
jameson
jupiter
jerking
journal
duchess
desires
dormant
dollars
declare
deserve
doorway
dignity
donetsk
defines
derrick
decreed
dorothy
defects
diocese
dessert
despite
domains
decatur
drawers
drilled
douglas
depends
darrell
demoted
depicts
dismiss
dodgers
dipping
devices
desmond
disgust
darting
densely
drafted
density
dunedin
downing
diamond
dresses
default
deserts
doctors
differs
dispose
diverse
dracula
daniela
detroit
dealing
dragons
deities
daniels
debuted
dumping
drained
destroy
display
dreamed
dolphin
donovan
descend
dioxide
deborah
dwarves
decline
dauphin
disrupt
domingo
draught
discuss
dripped
dresser
delilah
digital
dropped
dreamer
degrees
dangers
defence
deliver
donated
develop
defeats
durable
divides
devised
driving
debates
dispute
deleted
denotes
dungeon
diaries
divided
drawing
dealers
dickens
dunkirk
distant
denoted
docking
diffuse
demonic
dynasty
daggers
devoted
diagram
drivers
decided
dolores
delight
deposed
damaged
drought
darkest
doubled
doubles
deposit
donegal
derives
desired
denmark
drastic
desktop
defunct
dentist
dempsey
decides
dancing
dancers
denying
disdain
drowned
deepest
disease
defiant
dickson
demands
divorce
dragged
details
despair
drummer
dietary
dilemma
delaney
darling
dissent
defined
delgado
disused
digging
directs
decrees
dimitri
daytime
deficit
derived
designs
drifted
destiny
dresden
debated
daytona
dinners
dialect
doherty
decimal
dominic
dressed
decades
descent
drunken
doubted
damages
dowager
delayed
drugged
donnell
dislike
disturb
dynamic
diploma
defense
dubious
propped
plotted
papyrus
passion
primera
prussia
prayers
players
payload
profits
plaques
produce
pandora
paradox
publish
project
persons
potsdam
parties
panting
palette
prelate
present
premium
proctor
portray
protege
pianist
pearson
passage
parapet
portico
pasture
pathway
prairie
precise
passive
phyllis
peering
peppers
perfect
polymer
postage
pounded
palazzo
product
privacy
pairing
printer
powered
persist
pitches
punjabi
prophet
poverty
probing
promise
pleased
pirates
proceed
planted
pillars
pulling
process
panties
plunged
promote
portals
phillip
patrons
problem
predict
pauline
pharaoh
patrice
pounder
pioneer
parkway
perhaps
penalty
prakash
playboy
patrols
portage
plastic
painter
pigeons
pontiac
pendant
parades
planner
pitched
philipp
persona
pinning
podcast
pulsing
picture
platoon
parents
periods
proudly
patches
pajamas
plateau
posters
peasant
philips
plaster
percent
polling
pausing
possess
poultry
praises
prisons
presses
parking
pointed
premise
planets
preface
pebbles
pivotal
pollock
pierced
pinched
packers
pilgrim
provost
puppets
payment
piloted
packing
peptide
peanuts
persian
pollard
peacock
puzzles
pension
patriot
potomac
profile
placing
pumpkin
popping
priests
parcels
pyramid
pradesh
patient
printed
permits
pitcher
pending
peerage
parsons
pistons
pereira
purcell
pigment
perched
playing
prefers
protect
picking
packets
patents
pursuit
peoples
pumping
painted
pacific
porsche
perform
pudding
pursued
punched
praised
phoenix
peeking
program
praying
passing
purpose
peeling
premier
proving
palermo
popular
payroll
primary
playful
pockets
prefect
prequel
popcorn
primate
peaking
plucked
posting
puzzled
protein
piccolo
pokemon
picasso
partial
pushing
phantom
playoff
pleaded
postwar
pillows
patting
ptolemy
patrick
peabody
partner
pattern
provide
physics
prelude
princes
panther
punches
phrases
parting
pledged
prevent
pressed
packard
pennant
prepare
palaces
plumage
paisley
propose
protest
pageant
peugeot
plagued
plainly
pottery
portion
private
perfume
pistols
pretend
prowess
pegasus
preston
pointer
posture
preview
pricing
planned
perkins
psychic
presley
pouring
putting
painful
provoke
package
penguin
polgara
prodigy
koreans
knowing
kashmir
kendall
kaufman
keeping
knotted
knocked
kaitlyn
kristin
kurdish
kidding
krishna
kingdom
kickoff
kristen
keating
kincaid
katrina
knights
kinship
kaladin
knowles
kolkata
kathryn
khalifa
kennedy
killing
kannada
kissing
kenneth
killers
kimball
kellogg
kicking
knesset
keynote
kildare
karachi
kinetic
kitchen
keepers
runners
removal
rosario
reality
revenue
rutland
resided
resides
royalty
robbins
raiding
rebirth
routine
richter
romania
raphael
roasted
redding
romance
rodrigo
roaring
realize
rhythms
remarks
reflect
resting
reddish
require
roberto
reports
rectory
railway
rescues
referee
reacher
rooster
richard
ranking
rebecca
rocking
ritchie
removes
results
raining
reduced
rippled
refuses
regimes
rangers
reliefs
renewal
randall
retreat
rapidly
raising
robbery
regents
radical
rubbing
replied
repairs
regions
roanoke
reviews
rooftop
returns
receive
replace
recover
replies
rallies
resolve
regards
ringing
ribbons
records
rushing
rumored
refused
roberts
roadway
rainbow
revived
regrets
reacted
rutgers
reunite
rations
remains
renault
recital
reputed
raleigh
rallied
rejects
rollins
reeling
rodents
reached
rebuild
ripping
russian
rattled
recruit
railing
redwood
risking
revered
restart
reunion
resumed
reclaim
restore
recited
rampage
reprise
respond
retains
replica
runways
reasons
refugee
reserve
regatta
renewed
rodgers
ricardo
rebound
roughly
revival
reforms
repeats
relieve
remorse
rappers
radiant
rotated
running
roberta
relates
richest
remixes
rituals
reapers
runaway
rumbled
reprint
raiders
realise
reaches
rebuilt
rowland
remnant
rumours
raymond
rihanna
rosalie
respect
rabbits
russell
rescued
request
rampant
ruining
refrain
reuters
ravaged
refined
robbers
revenge
reigned
rockets
reduces
ratings
regency
ramirez
realism
rotting
readily
routing
related
rivalry
robotic
readers
roaming
rockies
residue
relying
redhead
reactor
recalls
regular
revoked
rematch
remixed
release
rubbish
relaxed
revised
refusal
requiem
recipes
retired
reissue
ranging
rounded
receipt
rudolph
rolling
resorts
reverse
reminds
reveals
raceway
reading
removed
rewards
renamed
enhance
endured
erasmus
ellison
ernesto
episode
earning
emptied
employs
elegant
extinct
engaged
escaped
everest
emerald
experts
exclude
enabled
emotion
encoded
ethical
empires
exhibit
excused
escorts
epsilon
entropy
exhaust
easiest
endings
elastic
evolved
evicted
exploit
enacted
extreme
endless
earthly
epithet
enraged
expects
endowed
echoing
embrace
expands
exports
exactly
estonia
eagerly
erosion
exiting
explore
essence
explain
eleanor
everton
eyebrow
ecology
example
editing
erected
expired
estuary
emanuel
edition
ensuing
elusive
engages
economy
epstein
explode
ensured
empathy
eireann
elliott
enclave
everett
elector
equally
expense
exhaled
emerges
erupted
elderly
edouard
existed
enforce
expanse
eastern
endemic
effects
engines
enables
emerged
extract
entries
ecstasy
execute
estates
etienne
evident
emerson
enrique
eduardo
earlier
electro
educate
efforts
ezekiel
eminent
exposed
estadio
estrada
embassy
ensures
extends
earnest
excerpt
eyelids
excuses
editors
emitted
edwards
element
endelle
enjoyed
english
erratic
eastman
entered
eclipse
evening
exceeds
ejected
ethanol
england
equator
ecuador
express
enemies
elected
erskine
engined
emperor
enfield
empress
examine
eritrea
eternal
escapes
excited
enzymes
gymnast
grossed
georgia
gunshot
gifford
ghostly
greaves
grooves
gleamed
grazing
grasses
giggles
gazette
generic
glances
gabriel
garment
glaring
granada
grafton
georges
garbage
greatly
greyish
granted
grinned
gallant
georgie
glasgow
glanced
grandma
groaned
gesture
grasped
guineas
goodwin
grabbed
gustave
goodman
galerie
granite
grocery
grouped
gaddafi
gestapo
galicia
guessed
genuine
gritted
gardner
galileo
goddamn
glamour
glitter
galilee
gunther
glucose
grayson
gunfire
grimace
geology
gateway
graphic
glacial
goddess
gospels
goodbye
guthrie
guiding
germans
gilbert
garland
grenade
getting
greeted
gunnery
growing
genesis
godfrey
guarded
goddard
giacomo
greater
grading
gardens
gradual
gustavo
gregory
germany
guitars
goldman
grunted
grenada
gibbons
gunners
glowing
gorilla
gathers
gasping
griffin
giorgio
general
graders
gearbox
glasses
garrett
growled
gaining
gallons
geelong
gravity
gilmore
grimsby
grandpa
gerhard
gallery
gravely
gillian
genetic
gripped
germain
glimpse
grounds
glacier
gliding
gujarat
giggled
gonzaga
grammar
vertigo
vickers
viewing
vendors
vintage
ventral
visible
variant
volcano
vietnam
villain
vilnius
vaughan
viruses
vinegar
virtues
virtual
violins
voltage
vulture
variety
valleys
visions
vaguely
visitor
vampire
village
visited
viewers
vanuatu
vessels
visibly
voyager
version
vantage
vaulted
vincent
viceroy
victims
vitamin
vacated
vectors
valiant
viaduct
vacancy
valerie
varsity
various
veteran
vibrant
varying
vermont
vanessa
voyages
violate
vikings
vaccine
vicious
vehicle
volumes
vanilla
verdict
vicente
visuals
venture
vatican
ventura
violent
victory
quality
quarrel
quickly
quietly
quakers
qualify
quartet
quinlan
quicker
quentin
quintet
quoting
quantum
quieter
quarter
zealand
zombies
zionist
zoology
zachary
triple
trauma
tilted
trojan
tunnel
trevor
truman
tobago
tavern
throws
throne
torres
towels
ticket
trance
tinged
taylor
trails
tended
topics
target
thirst
telugu
treaty
tactic
timely
titled
twitch
thence
truths
thrash
tapped
turkey
themes
tobias
turtle
thesis
texted
troops
tugged
tacoma
teased
trough
turret
tinted
treats
terror
things
trusts
tanner
though
teaser
tackle
timber
tested
titles
theory
tasted
tailed
troupe
thrust
tender
tigers
tuning
tracey
texans
thinks
tracks
tribes
titans
tanaka
travel
turner
torino
thirds
taught
thomas
trader
termed
turing
thames
toward
temper
trains
trials
teresa
torque
techno
turkic
trophy
tablet
tonnes
toledo
tenant
thorpe
tumble
talmud
thrill
tremor
taipei
tragic
twists
thorns
thayer
traces
tehsil
themed
talked
trolls
tipped
totals
toulon
thread
tensor
tangle
teller
tingle
talent
timing
topped
theirs
turned
tomato
tenure
threat
ticked
tamara
tossed
taiwan
temple
thanks
thrown
tensed
tanned
towing
tumors
toilet
twenty
tarzan
toured
tribal
tennis
trends
travis
tehran
traced
towers
tandem
tyrone
tracts
taller
trucks
trench
trades
tricks
tucson
thorne
teatro
thrive
thirty
tucker
tucked
traded
thumbs
tastes
traits
tailor
tariff
taking
tanker
tables
teamed
trunks
tagged
talbot
tulane
tricky
tattoo
typing
tirana
tongue
trying
twelve
throat
tasked
tissue
thighs
taluka
tyrant
toyota
opened
oracle
oxygen
orchid
occurs
opined
obeyed
object
oblast
opaque
orders
oppose
ordeal
ornate
oakley
odisha
ousted
owning
oliver
orange
opener
organs
odessa
orbits
onward
offset
orphan
office
octave
owners
openly
osborn
oregon
oswald
outset
outing
others
oldies
origin
oxford
ortega
ottawa
outlaw
online
obtain
oceans
outlet
oldham
oricon
oilers
offers
orgasm
occult
output
overly
onions
option
outfit
orient
occupy
oyster
oldest
oaxaca
operas
olivia
optics
anglia
awards
ashton
avenge
adolph
adhere
amazon
auburn
annual
albeit
amanda
artist
appear
assets
abrams
anders
aragon
assume
adrian
alloys
airing
argued
assign
approx
angels
ambush
albion
anthem
astros
access
argent
anyone
arthur
adults
andhra
arroyo
acidic
agents
aiding
antrim
ascent
accent
avenue
advice
aarhus
armand
armagh
attain
adored
arabia
aiming
aisles
alonso
angles
affair
attack
avalon
afford
assent
amidst
attend
annals
animal
advise
andres
amount
agency
agenda
aspect
amtrak
albany
andrea
alexia
absorb
arrows
asking
arturo
andrey
alarms
arrive
austin
alexei
andrei
alsace
almond
albums
antony
ankles
anchor
amulet
agreed
alfred
attach
airbus
adjust
armour
angola
argyll
allies
astrid
ashore
alpine
asthma
andrew
august
acacia
angled
assure
actual
asylum
accept
assist
abuses
apples
assert
alvaro
abroad
athena
always
aleppo
addict
arched
allied
aquino
angela
aegean
arctic
amused
awhile
abbott
anyway
author
almost
arcade
archer
austen
anhalt
arabic
airmen
arrest
atomic
amelie
aerial
adding
answer
arches
affect
albans
avoids
alyssa
afghan
atkins
actors
avatar
accuse
apollo
across
absent
acting
afraid
active
austro
armada
archie
attire
apache
aboard
arises
autumn
arrays
alaska
assess
autism
abbess
analog
aachen
alumni
africa
amazed
aubrey
abrupt
ashley
armies
albert
admire
alexis
audrey
agrees
aurora
aliens
ankara
alison
absurd
artery
asleep
alicia
action
agatha
arnold
allows
abused
accord
amelia
armory
appeal
azores
ardent
antics
athens
argues
apical
atrium
advent
around
angelo
arenas
aching
argyle
admits
invade
indian
invite
inform
irving
intent
induce
iphone
indeed
island
inline
inched
ithaca
intake
intend
irvine
insist
impact
indigo
invest
inmate
insult
indies
ironic
isaiah
intact
insect
idiots
isabel
import
inputs
issued
images
insert
ingrid
influx
inward
italia
immune
intern
iconic
ignore
itself
indira
insane
issues
inches
infant
innate
itunes
israel
inning
income
inside
inland
ideals
ismail
injury
ingram
indoor
impose
ivanov
waived
weight
wanted
wiener
wallet
worthy
warner
wreath
wicked
wrists
warmth
winged
willie
warmer
warden
wilder
winery
writes
warily
webber
worked
willed
waited
weston
welles
welded
warren
weighs
widows
wicket
walter
writer
wizard
whilst
winter
wagons
weaver
walked
wolves
washed
warped
wishes
walnut
waking
weasel
willis
weimar
weekly
waters
weakly
wiping
warsaw
weaker
wesley
winced
walton
wildly
wright
willem
wilton
widely
wilbur
warmly
wallis
wheels
wander
wessex
walker
waiter
warmed
wounds
werner
willow
wonder
wished
wouldn
winnie
wasted
wiring
wisdom
winger
walden
worker
wagner
wooden
watery
whales
wilcox
wilkes
weaken
wholly
winner
waller
whites
worlds
whisky
within
whorls
weapon
winked
wooded
wealth
warned
walled
wilson
waving
window
watson
hermes
hatred
hoarse
hewitt
harder
hostel
harlow
hurled
hodges
headed
howled
herbal
handed
horned
hanged
humble
heated
hiking
honest
hebrew
harmed
heaved
henley
hobart
hannah
hollow
hoover
heresy
hubert
harley
hauled
header
hooves
henson
helens
hudson
hounds
honour
hidden
hassan
hailed
hazard
hiatus
hailey
howard
hissed
harden
hearst
hangul
havana
heroes
hinges
hushed
hayden
horace
hopped
harper
hitler
haired
holden
heller
hapoel
heroin
henrik
hurley
harvey
handel
hacked
hybrid
health
habits
hamish
huffed
hummed
healed
holmes
harmon
hungry
helped
hardin
hadley
hedges
hugged
hindus
hermit
hooker
hansen
heaven
humane
harbor
harrow
horses
hooded
hotter
harlan
hilton
hopper
hoping
hunter
haynes
hutton
helium
hacker
having
hurdle
hollis
hourly
hornet
honors
hearth
hearts
harris
howell
herman
hawaii
hunger
horton
hangar
hosted
helmet
hardly
harlem
hiring
helene
housed
hunted
halves
hating
hamlet
helena
hockey
humans
hiding
height
hilary
hughes
heroic
horror
hector
halted
herald
hugely
happen
houses
humour
handle
highly
helmut
hanson
holder
hammer
hotels
hitter
harald
hinted
hooper
homage
healer
hirsch
harold
hawker
higher
hooked
funded
fiance
fulham
fergus
father
filing
fowler
fusion
floods
fallen
fabric
francs
forget
facade
formal
fatima
fluids
fronts
faulty
fender
fiscal
flight
failed
facing
faerie
fright
future
ferrer
frozen
fished
fresco
finite
fierce
floors
fiesta
ferris
forbid
french
flyers
faults
forced
flanks
facial
filmed
fungal
funnel
frowns
franco
forbes
firing
flatly
fishes
factor
family
fulton
fisher
fluffy
filter
feudal
foster
faster
futsal
finale
fueled
finals
floppy
folded
floral
felony
feared
finest
friars
fixing
fairly
fringe
forged
fences
flutes
fuller
flowed
fights
forces
famine
firmly
fenton
formed
friend
freddy
fellow
futile
fibers
fisted
follow
freyja
fiddle
fourth
famous
freely
finger
finley
falcon
fluent
format
fossil
fujian
felipe
flower
franks
former
fleets
fading
flavor
fruits
forest
fresno
fooled
frenzy
floats
fumble
fraser
favors
filthy
flexed
fucked
flames
fabian
fought
framed
freaks
favour
fitted
finely
flawed
fallon
filled
fridge
fields
forums
female
fungus
farmer
folder
flores
flared
france
finish
flying
footed
figure
feeder
friday
frames
flinch
freeze
forgot
belize
breach
begins
breton
buddha
browne
bitten
banana
batman
blonde
bandit
butter
barony
backed
buenos
boiled
budget
barbed
bricks
borneo
beyond
banned
booths
benign
bumped
bucket
boring
biking
benito
boards
barrio
broker
beetle
beside
breaks
beaten
before
button
blinds
burial
brooks
botany
bomber
bobbed
barrel
bitter
bridge
batted
blasts
barley
basalt
blanco
betray
burned
brahms
becker
boomed
bobbie
bright
bakery
belong
bilbao
balkan
bodied
bounds
behind
bernie
ballet
bodies
behold
bryant
buster
bhutan
brunei
beamed
baking
boiler
barges
beings
bodily
barber
breast
bishop
brasil
bowler
bladed
broken
beirut
badges
buffet
bounce
breath
bremen
brooke
brodie
blamed
bowman
bazaar
benson
boxing
builds
blooms
bottle
billie
bought
boogie
brandt
barack
bounty
bonded
blocks
bundle
barely
bailey
beatty
burger
bosnia
battle
billed
buzzed
boston
beauty
begged
brenda
beasts
barron
barbie
basics
barker
bearer
braves
brands
bertha
bergen
brains
better
barons
bursts
barred
border
baxter
briefs
biased
briggs
boeing
barton
baylor
barrow
bigger
behave
bottom
basins
bengal
bolton
banded
buried
barlow
biting
blouse
breeze
bonnie
basket
bathed
barney
bolted
bourne
butler
bother
ballot
blazed
burton
banker
barnes
borrow
basque
brings
bertie
barnet
bushes
bryson
banged
bronze
buffer
buying
brakes
browns
blades
brandy
banner
berber
booker
bunker
barked
brewer
become
barren
bangor
blanca
bombed
brutal
bonnet
barrie
bowing
bumper
bloody
babies
bombay
busted
boxers
branch
buyers
boasts
bruise
badger
bikini
beacon
brazil
behalf
bamboo
baltic
breeds
beaver
blacks
binary
batter
bubble
bowled
bribes
bender
bianca
bypass
buckle
ballad
bosses
bayern
bullet
blaine
bureau
backup
became
berman
booked
berger
braden
bessie
bruins
bethel
biceps
burden
braced
bogota
benton
births
berlin
benoit
belief
##dion
##less
##itch
##rift
##vili
##bble
##otto
##tley
##ists
##inge
##ower
##hale
##tick
##suke
##rson
##tein
##igen
##free
##vani
##rley
##gnan
##skie
##awan
##slin
##vera
##stov
##tite
##llet
##ssed
##cent
##sten
##aria
##acio
##tive
##lium
##gong
##pool
##mind
##mack
##igny
##yala
##anta
##hiti
##rgos
##litz
##iard
##grin
##bedo
##abad
##tton
##ania
##vsky
##erty
##lita
##rred
##kaya
##cise
##hell
##tour
##eche
##iana
##koff
##tish
##wehr
##mada
##frid
##ctum
##urus
##rera
##ably
##lena
##nath
##glio
##gree
##mona
##arth
##pura
##roid
##pipe
##nies
##ttes
##bers
##nder
##tman
##lley
##belt
##asse
##load
##lais
##kled
##kley
##enko
##sner
##game
##tula
##crat
##jord
##sher
##rail
##mith
##wide
##most
##mute
##heim
##nent
##hair
##etti
##pins
##miya
##erry
##gens
##eurs
##wley
##icle
##vill
##oven
##nium
##anor
##cous
##oria
##ston
##zano
##dara
##issa
##nary
##zaki
##uter
##rber
##sted
##hood
##ales
##tage
##fest
##lani
##ibly
##tsky
##qual
##ault
##dern
##rdan
##aina
##erus
##ains
##ksha
##orio
##ando
##isse
##bots
##gara
##vity
##mina
##cats
##ggle
##mity
##work
##folk
##dell
##dier
##mple
##bial
##vern
##quet
##tees
##outh
##isen
##nian
##sson
##gist
##logy
##ield
##nage
##tara
##xide
##wood
##ered
##enay
##ille
##feit
##uder
##fies
##rian
##some
##wari
##orno
##tier
##oper
##vies
##rook
##rone
##dial
##iled
##bley
##real
##line
##illa
##ique
##ours
##pour
##iver
##sons
##camp
##ffey
##sure
##ties
##mmer
##ator
##bled
##good
##lore
##tain
##cera
##hara
##llas
##yard
##amen
##nism
##wled
##mara
##ccus
##izer
##vary
##spar
##alla
##ster
##yler
##acle
##jean
##chet
##maid
##nsor
##otho
##odon
##vian
##arts
##nsis
##burg
##stad
##eras
##anal
##bain
##back
##holm
##cano
##hone
##ired
##hawk
##tery
##hart
##nden
##like
##mark
##etta
##hala
##cius
##dium
##ajan
##ides
##ials
##vard
##rdes
##deck
##ment
##zuki
##tort
##rret
##mmel
##onic
##rith
##urer
##hope
##oshi
##lous
##ller
##inia
##riam
##bane
##rada
##ates
##lvis
##ulio
##ents
##ulin
##rion
##mics
##gman
##rman
##apes
##town
##ught
##yman
##lmer
##ling
##taro
##erre
##film
##post
##ouin
##uven
##laze
##rino
##ieri
##dine
##lone
##iano
##sper
##opus
##tics
##garh
##bolt
##mare
##otic
##nham
##ello
##pies
##ouse
##taff
##care
##taka
##llan
##orus
##zzle
##nail
##eral
##bing
##mail
##cute
##wise
##rata
##mins
##ence
##just
##hort
##nard
##itte
##ders
##rite
##lina
##ashi
##take
##nett
##leaf
##hoot
##sius
##ulus
##hine
##lick
##cola
##isha
##zman
##edge
##away
##cier
##zbek
##enas
##fers
##gina
##hers
##iner
##rise
##phon
##hein
##roup
##ogen
##word
##nova
##roud
##ider
##ress
##stle
##oids
##erik
##nton
##rase
##gall
##itas
##cede
##ttle
##ones
##star
##aldo
##talk
##kura
##inen
##rcus
##uchi
##etic
##bags
##ting
##lism
##tion
##icio
##rned
##beck
##bate
##tius
##nitz
##avio
##itor
##ckle
##nery
##name
##sche
##ings
##rkin
##redo
##ants
##nger
##pala
##lica
##rana
##rank
##oric
##bach
##uche
##ther
##puri
##card
##wing
##onus
##cene
##rane
##bana
##ages
##yria
##ctic
##urse
##jian
##gies
##jana
##lity
##ibar
##mori
##view
##tler
##ving
##nica
##tura
##hrer
##aldi
##egan
##rwin
##wana
##rchy
##rang
##ancy
##zawa
##pton
##vron
##gler
##oked
##rita
##atin
##osta
##kney
##lles
##mine
##tose
##dlow
##hana
##nant
##shaw
##tama
##dock
##rize
##pack
##uted
##nsed
##ount
##leen
##onda
##borg
##tina
##more
##raus
##hard
##raya
##gers
##vant
##tine
##ises
##mere
##ares
##hema
##itan
##ners
##gram
##buch
##tter
##ttal
##ship
##cala
##dham
##jong
##onis
##mies
##beat
##mmon
##lent
##lika
##band
##nami
##aine
##usia
##ised
##gned
##nick
##chal
##wave
##eter
##quay
##pore
##adia
##lift
##hall
##sive
##olis
##ogan
##hold
##anum
##nier
##imus
##thal
##chia
##sser
##mbit
##mann
##ulla
##rika
##orne
##tore
##inal
##shot
##pass
##vere
##anda
##rong
##mist
##aire
##bang
##vier
##kell
##inas
##oses
##nous
##wski
##dome
##mons
##iche
##oris
##bold
##ject
##tzer
##reen
##ceae
##lain
##eous
##elin
##pire
##vial
##rous
##bert
##tten
##dran
##ndon
##oton
##suit
##abas
##aker
##nius
##cula
##fire
##kawa
##able
##lled
##kian
##cuit
##cule
##nist
##vers
##uses
##neil
##lham
##aton
##lder
##gged
##odes
##sian
##sily
##dict
##rier
##cote
##chev
##chee
##orin
##iter
##ocks
##ices
##arty
##yang
##rove
##iere
##book
##saka
##nsen
##tadt
##rona
##hian
##uron
##feng
##hend
##pped
##ytic
##icus
##hner
##psis
##mian
##ines
##laid
##rger
##rvis
##bria
##dale
##shan
##bham
##mous
##gata
##lved
##eiro
##ians
##wald
##para
##llah
##page
##iens
##rnet
##ball
##omba
##ging
##isch
##evic
##oese
##gpur
##oles
##stic
##ganj
##cton
##born
##foot
##fect
##scia
##rial
##ency
##pati
##athy
##ange
##rium
##skin
##cape
##lini
##aint
##resh
##nese
##elis
##wang
##corp
##zhou
##ters
##tary
##ease
##athi
##sies
##west
##lova
##gold
##ures
##bone
##hear
##sity
##ined
##frey
##ware
##stra
##anus
##yama
##life
##rose
##tern
##iani
##lage
##phic
##hole
##door
##aver
##sack
##week
##hong
##note
##ista
##play
##ples
##nity
##hiff
##udes
##ehan
##rons
##ncia
##mura
##sley
##tila
##gawa
##izan
##yana
##peed
##tted
##ulum
##head
##hima
##bino
##kill
##crow
##vres
##onga
##cine
##qing
##omic
##nell
##bles
##ards
##yuan
##wala
##gang
##park
##hini
##elli
##ggio
##phus
##drik
##escu
##ears
##rner
##lene
##rave
##boys
##dman
##stor
##suka
##fort
##coll
##mium
##atus
##cies
##kshi
##ride
##itic
##arat
##mini
##lary
##onte
##torm
##city
##kken
##idal
##ache
##ngen
##olic
##lers
##wark
##rney
##cing
##atic
##uded
##rano
##uram
##lves
##arus
##lide
##agne
##gnon
##tlan
##dong
##fish
##stan
##lish
##uria
##tock
##hand
##ntal
##lion
##kova
##ited
##cker
##type
##ptic
##cchi
##orro
##hism
##unds
##ossa
##tral
##ying
##mund
##cave
##itis
##cide
##lynn
##hony
##vara
##tled
##orra
##ions
##pace
##ifer
##kato
##girl
##cked
##lowe
##iser
##onal
##llin
##ural
##ssar
##lite
##anto
##onne
##nish
##eron
##dson
##hiro
##race
##ands
##lter
##oire
##rill
##rate
##ntly
##osis
##tify
##olio
##mite
##rito
##naud
##ance
##irus
##mage
##anga
##ezer
##dron
##llie
##outs
##zumi
##tray
##chio
##eded
##beam
##ided
##wart
##gger
##over
##nare
##wall
##nnis
##jing
##ense
##amps
##ning
##cter
##buro
##mler
##roll
##rted
##pani
##pate
##pine
##ured
##esis
##reus
##aday
##erie
##cini
##lese
##ndra
##bara
##bank
##ical
##veda
##ctor
##oche
##horn
##neas
##rest
##uman
##form
##lord
##gren
##zing
##tera
##gins
##xing
##lein
##wife
##rent
##pers
##oder
##idge
##chan
##erin
##tial
##tung
##mers
##bahn
##laus
##cana
##scoe
##cens
##year
##kind
##tone
##vati
##nsky
##long
##dden
##bill
##fied
##grad
##walk
##llum
##sham
##giri
##xton
##tead
##gart
##asco
##cina
##ward
##inga
##olar
##alia
##rina
##mata
##ever
##cian
##shin
##nson
##path
##bbed
##dent
##rnik
##rton
##hips
##dorf
##rked
##ppet
##hide
##lier
##ergy
##fold
##lean
##rien
##ible
##enna
##rica
##pled
##rick
##drum
##trom
##cles
##lich
##dian
##hila
##ways
##dant
##mism
##thus
##rmin
##hoff
##chin
##ific
##case
##ater
##weig
##vita
##nock
##ital
##umen
##ffle
##itha
##vino
##rder
##ison
##eers
##iful
##laya
##time
##lden
##unda
##ilis
##ople
##tric
##illo
##chon
##kota
##kers
##alis
##auer
##sler
##ovic
##anza
##tron
##zine
##sume
##rand
##ened
##quel
##open
##oons
##scan
##imov
##wara
##vine
##vite
##lman
##kson
##tech
##ella
##rran
##wicz
##emon
##ffed
##rued
##witz
##cars
##nine
##pods
##ient
##alle
##ddle
##ente
##face
##bund
##lton
##tica
##ucci
##list
##chus
##lver
##mble
##emia
##offs
##berg
##gard
##khar
##uary
##stis
##lies
##wani
##ular
##etto
##lete
##pile
##helm
##gent
##thic
##asia
##tres
##ythe
##gate
##bard
##ring
##core
##turn
##ipes
##side
##lwyn
##ario
##geny
##rine
##oint
##dley
##mart
##tors
##cake
##lett
##lana
##uing
##otti
##fine
##idad
##ques
##bies
##rmed
##ilia
##imum
##lino
##eger
##well
##rama
##vale
##ilde
##tino
##sett
##vira
##tute
##ldon
##wich
##ruck
##gled
##lace
##ctus
##tate
##lase
##bler
##lock
##llar
##iary
##ized
##yuki
##ecin
##yles
##ivar
##adan
##worm
##erly
##arns
##unes
##uppe
##igan
##ules
##chuk
##edes
##orth
##ffer
##held
##aged
##vish
##enes
##tree
##lets
##ssen
##pole
##base
##tani
##mora
##llus
##dina
##ckey
##llon
##tium
##vich
##tang
##uous
##rgen
##iste
##moor
##rard
##lars
##tory
##chai
##rily
##hani
##isan
##eaux
##aith
##used
##mond
##tale
##osed
##mana
##hman
##vent
##mont
##ager
##dust
##lins
##khov
##ardo
##nets
##achi
##naut
##edly
##sier
##haus
##mour
##bron
##dora
##nall
##ture
##ioms
##cted
##tana
##rral
##dick
##ador
##bula
##yson
##cope
##iate
##hill
##mani
##tner
##cans
##user
##rius
##nted
##eric
##dhar
##idia
##wice
##unce
##rade
##gano
##tham
##avia
##pone
##ding
##mans
##oted
##mide
##plin
##cial
##bola
##ight
##hane
##ries
##rich
##ried
##dler
##date
##zers
##oman
##hett
##weed
##rish
##coat
##cure
##dies
##hler
##runa
##lake
##trix
##hiko
##land
##vana
##gill
##wine
##eley
##inda
##sman
##isms
##lang
##moto
##pina
##tile
##sari
##illy
##werk
##tism
##cade
##tase
##zier
##bird
##bbon
##lian
##usly
##uber
##rist
##kali
##vate
##eles
##thed
##urne
##sund
##jali
##comb
##dner
##ylus
##abia
##aves
##dles
##ping
##late
##orum
##loid
##lten
##ores
##idon
##kata
##eira
##ally
##bury
##iers
##rath
##aris
##cion
##onia
##anne
##urai
##rain
##dget
##hire
##mate
##ette
##sell
##llis
##nged
##cock
##icon
##koto
##pose
##lass
##cher
##mise
##boat
##mony
##ntes
##fide
##pher
##dity
##inho
##bala
##shed
##dder
##lson
##bian
##rell
##jack
##iest
##ados
##bber
##idae
##cend
##thes
##port
##beau
##glia
##fare
##dote
##bant
##hosh
##eson
##eran
##nche
##jima
##rden
##ruff
##wear
##olin
##ough
##dled
##enne
##lund
##iman
##ango
##ches
##llen
##eyer
##made
##anov
##tens
##alic
##with
##holz
##hita
##uity
##pper
##kari
##trip
##aran
##fell
##thor
##rock
##onzo
##rant
##felt
##dice
##oped
##trum
##udge
##bari
##firm
##kara
##main
##vitt
##utus
##zone
##tian
##eses
##slow
##uled
##gaon
##rini
##otte
##rbin
##icum
##furt
##raph
##lane
##ssee
##rani
##akes
##hora
##ored
##mill
##lius
##fall
##tori
##wash
##foil
##bour
##eman
##ysis
##sque
##ming
##fles
##bner
##ated
##itia
##kong
##hing
##buck
##uate
##pres
##oran
##rrow
##atal
##bery
##rled
##zuka
##oise
##nais
##ddin
##cona
##arte
##eves
##enia
##wick
##oney
##gles
##eber
##elle
##cate
##plex
##neer
##bine
##tyle
##rity
##tson
##vius
##boro
##owed
##rlin
##ious
##xley
##sant
##odle
##bush
##anna
##hang
##nded
##inae
##bina
##elia
##icia
##cott
##kker
##isto
##ives
##lice
##room
##cite
##rice
##aman
##burn
##link
##mbre
##till
##ites
##tist
##king
##lind
##eres
##kins
##lard
##test
##zily
##chel
##liga
##cino
##unas
##rgan
##chen
##chua
##down
##rcle
##eria
##ichi
##gues
##urst
##fted
##tops
##vina
##ayan
##zong
##sion
##wire
##ffen
##rrie
##ener
##tell
##gami
##iger
##feld
##bson
##oned
##dini
##hore
##ppel
##quil
##fast
##body
##hari
##baum
##fera
##dded
##flow
##tail
##bbly
##ffin
##sden
##ffie
##vert
##kala
##very
##eros
##ante
##zard
##drop
##quin
##code
##ulia
##ross
##ness
##text
##lash
##ssel
##cast
##rter
##ades
##mber
##khan
##jure
##rval
##bell
##dana
##bius
##wind
##nate
##boot
##ound
##sing
##rdon
##than
##izes
##gley
##neck
##cken
##ghan
##ford
##ched
##shah
##rage
##haya
##zell
##inus
somali
siding
sunset
styled
sorrow
slices
sultan
slaves
stable
sermon
square
suites
severn
scotch
snakes
sutton
sighed
sweets
slacks
spends
strand
sphere
satire
shower
sonata
sanjay
soared
scheme
soothe
swings
sequel
shiver
sports
steady
scenic
sailed
senate
sierra
sumner
shrubs
solemn
spread
streak
sacked
strata
stream
surfer
shrugs
stress
sydney
scream
slayer
shirts
suburb
shakes
switch
spices
strife
survey
sweeps
slovak
scroll
sabine
speaks
simeon
skirts
sanity
spruce
sharks
summon
sussex
scales
stripe
spider
strait
shapes
sahara
search
saying
scrape
signed
shared
salute
sergey
suzuki
shafts
shocks
sought
states
serial
shelby
sergio
somber
spoken
subtly
scores
sandra
stills
shells
strewn
spence
severe
simone
siegel
sleepy
served
sacred
subway
shield
shrink
stefan
simply
skulls
stared
sucker
strain
sponge
snails
sprint
samson
shorts
syrian
sniper
sherry
sounds
single
shrine
surged
struck
sturdy
seeker
sunken
sketch
skopje
sheikh
seater
sticky
stores
spinal
sagged
sainte
speech
sienna
softer
stored
skylar
saliva
sobbed
sorted
stitch
strike
slalom
seemed
suffix
swayed
street
solved
silent
seneca
shaded
stella
simple
screen
series
sensor
strong
saturn
settle
smiles
shriek
seamus
sidney
scouts
social
skater
stupid
shares
stacks
steals
swiped
seeing
status
swamps
smiled
shores
stones
spared
slogan
suarez
squash
squads
storms
storey
submit
safety
snyder
serena
shaved
santos
solely
sweaty
steven
season
seamen
scarce
shaped
sucked
secure
seated
snatch
serves
shades
source
steppe
sooner
strict
samuel
sulfur
sevens
stalls
speeds
stench
stuart
stride
softly
subtle
squeak
sparta
spaced
safely
sabres
shouts
salman
spears
seaman
spores
sexual
superb
sloane
sealed
splash
saving
sleeve
slated
surrey
sharon
spring
scully
stevie
select
shaken
sharma
showed
static
speedy
sophie
sharif
sophia
shrill
shrimp
slower
scribe
secret
scaled
smiley
silvio
spouse
silvia
sawyer
scorer
spines
sphinx
stages
sample
sylvie
sparse
stance
skinny
stated
stereo
suffer
saints
sicily
strips
serbia
stairs
slight
sensed
scents
seldom
saetan
sipped
steele
savior
summer
saddam
stunts
spiked
starts
seller
shaggy
spells
scared
sector
saxony
slater
smells
socket
stains
styles
symbol
slavic
sewing
stolen
solids
savage
sylvia
shards
serene
stalks
slowly
swords
slopes
supply
soaked
stalin
sparks
salary
syntax
seized
singer
signal
soccer
shoots
stands
seduce
soviet
silver
sheets
stroke
sentai
stakes
stocks
sergei
stacey
senses
skills
script
strode
scored
subset
slowed
sticks
syriac
supper
spaces
sleeps
sailor
surely
sharpe
scares
shovel
saigon
sodium
sights
sliced
strive
server
school
staged
sakura
smoked
sirens
should
sonora
spiral
scotia
stigma
sunday
stamps
shoved
stanza
staten
safari
smooth
sirius
sister
sheath
stayed
straps
spirit
slides
saline
strung
sewage
sitcom
staple
sprung
shelly
stokes
studio
shifts
seeded
sheila
senior
sesame
skiing
stucco
system
second
scenes
saloon
sweden
statue
spying
stares
shadow
squire
string
shitty
spikes
saxons
splits
selena
sadler
snacks
suited
stormy
shaman
salmon
saddle
sprang
sloppy
sudden
summit
stroll
youths
yields
yawned
yvonne
yunnan
yellow
yearly
yorker
yanked
yankee
yelled
yamaha
normal
nobles
neatly
nasser
native
nearby
nation
nestor
nikita
novice
naples
neural
noelle
nectar
nobody
newark
nordic
nicely
ninety
nicola
nights
nature
needed
nevada
norman
nearer
nickel
napoli
nicole
neared
norton
namely
nagoya
nipple
newell
nissan
newton
number
noting
nellie
nebula
nassau
nascar
nuclei
notion
nippon
nailed
nothin
nurses
nerves
needle
nantes
napkin
naming
noises
nathan
nepali
napier
norway
nelson
nikola
navajo
nearly
nodded
notice
nausea
norris
nguyen
nudged
nephew
newman
newest
narrow
novels
malaya
mantle
merger
mascot
morale
mutiny
mounds
morrow
mutter
milton
mendes
mayors
mcleod
malley
mclean
mellon
mohawk
medici
marker
magnum
midday
mysore
myriad
matter
mongol
matteo
meadow
masjid
maiden
manner
miller
merely
molten
mental
masses
mumbai
marius
malaga
marino
morgan
medina
mouths
mozart
myself
molina
mickey
mackay
movies
manual
marche
mandal
monkey
malice
moving
member
median
minnie
middle
marble
marcel
mystic
mendez
manson
millie
mentor
motown
magnus
mccann
mandir
monaco
martyr
mammal
motion
murals
minded
massey
marcus
massif
muzzle
marcia
merlin
memory
markus
museum
making
moritz
moaned
miguel
menace
maroon
minute
melted
monday
medium
meteor
moreno
mother
magnet
madden
marian
midway
medley
motors
morton
morals
manuel
madrid
mayhem
mighty
muslim
mating
mortal
maison
manned
market
munich
muscle
mainly
myrtle
missed
mantra
mobile
marvel
medial
martin
morley
murmur
metals
marked
marley
minors
meters
modify
mostly
modern
muller
margin
makers
majors
miriam
mercer
module
mining
mildly
merits
merged
mounts
marred
marcos
manage
marvin
margot
maddox
mutant
misery
makeup
mister
martha
mirage
metric
mathew
malawi
murray
molded
methyl
mosaic
melody
marine
mutual
marlon
mccall
malibu
moines
mormon
madras
musica
madman
milano
memoir
monroe
motifs
moscow
moffat
mocked
months
moment
miners
marrow
manchu
masked
madame
metres
marion
malone
medals
mixing
modest
master
maddie
mughal
mcgraw
messed
muriel
mccain
morris
maggie
method
murphy
mirror
manila
mcgill
michel
motive
marina
mahmud
madhya
models
matrix
mexico
misses
mapped
mortar
muster
mosque
melvin
monica
mature
merton
murder
uganda
utmost
unlike
unpaid
upland
useful
unison
uneasy
unseen
upward
unused
upbeat
urgent
uptown
utopia
undead
unfair
urbana
usable
unlock
uneven
ulrich
ursula
uphold
unique
uncles
undone
unable
united
update
upheld
unsure
unesco
ulster
unease
unless
unsafe
unicef
unions
upside
unrest
umpire
urging
caliph
cheryl
chopra
callum
copies
convey
claims
cement
chrome
cochin
camped
curved
cannot
cattle
celtic
canned
clumsy
clancy
coated
camden
commit
choked
colton
clover
campus
comune
cupped
casino
cassie
cinema
conner
canton
chases
caused
critic
curate
consul
champs
clocks
charge
canopy
cheeks
canyon
cipher
closed
covert
courts
coding
caring
clause
causal
cicero
choice
cherry
custom
coffee
choose
cramer
cannes
chilly
coyote
colour
center
chords
chance
canvas
conway
cheese
cannon
closer
crosby
cables
canals
clutch
carrie
conrad
chopin
crates
craved
carter
covers
copied
calder
comedy
calves
coming
cavern
craven
cheung
carved
cuckoo
christ
crouch
coldly
common
condom
comets
convex
corner
coarse
cocked
clicks
curses
condor
closet
caught
castes
campos
crater
cheers
cessna
crimea
creole
chairs
cities
clinic
crazed
coping
cheney
comics
cantor
clawed
chests
clouds
crying
collar
calmly
camera
combat
caucus
canine
chavez
chicks
cactus
church
clergy
crowns
collin
callie
chapel
cooper
change
citrus
clever
candle
county
charms
capped
centro
copper
cinder
carlos
chased
clarke
calais
crisis
cruise
create
colony
carmen
cedric
creeks
carbon
carole
called
contra
convoy
chains
casual
cadets
carver
canary
clerks
cooled
coiled
caesar
cabins
clones
cavity
colder
costly
causes
canons
closes
curled
cartel
crowds
creamy
circus
caller
checks
cobalt
cooked
couple
ceased
cutler
claire
cooler
cleric
ceylon
cookie
creepy
cliffs
clears
curran
cousin
cotton
cosmos
cortex
cyclic
chorus
canada
chants
coined
calmed
cayman
custer
cairns
cracks
connie
corbin
course
calvin
carson
claude
client
cradle
choral
curtis
capcom
coffin
corpse
cellar
caress
circle
climax
ciudad
connor
cancel
crises
covent
crafts
cowboy
castro
celine
chiang
coasts
cranes
colors
counts
croats
cereal
chimed
census
corona
charts
comply
clinch
chiefs
cosmic
capita
cloudy
currie
centre
carmel
credit
carrot
curves
chunks
chosen
castle
climbs
coptic
cursed
cutter
casper
crotch
casket
crunch
couldn
citing
cancer
cortes
column
chores
cycles
crimes
cullen
corpus
cesare
coward
clench
chewed
cyprus
choirs
career
carpet
labels
legged
launch
livery
liquid
louvre
lodges
litter
leslie
liking
lehman
leader
legend
learns
loomed
lesson
leases
lawson
lonely
loosen
losers
logged
locals
lasted
lowers
ludwig
layout
lyndon
lauded
likely
lethal
liable
luxury
lionel
lifted
lauren
legion
linear
levant
laptop
loaded
lawyer
lilith
lastly
listen
louder
losing
levine
ledger
leaves
lizard
laguna
laurel
lovely
levels
lambda
lately
learnt
lowest
linden
landon
lakers
longed
lennox
latest
listed
landed
lashed
locate
layers
licked
looked
lovers
lesley
league
lenses
leased
lucian
labour
lounge
lodged
luther
lehigh
linger
loyola
lumpur
leiden
leaned
lahore
lucius
lagoon
latino
lawful
leaked
leaped
ladies
lavish
losses
lumber
ligand
larvae
lister
letter
larson
lineup
lucien
linked
laurie
lunged
laszlo
lankan
leland
latvia
loving
little
loaned
ladder
liquor
larkin
lashes
locked
longer
larsen
lining
length
lublin
lasers
latter
lizzie
louisa
lacked
landau
lester
living
laughs
latham
leonid
loudly
louise
libyan
lowell
lively
larger
looted
london
laying
lennon
locker
legacy
lesser
limits
lights
layton
lyrics
lisbon
litres
jungle
jaguar
julian
julien
joking
judged
junior
jarvis
jockey
josiah
jesuit
joined
joseph
jurgen
jersey
judges
jewels
janata
justin
jammed
jacket
julius
joanne
judith
jingle
jagged
jerome
javier
jasper
joints
jogged
jewish
jordan
jensen
jagger
jennie
jackie
jumper
jaipur
jessie
jurist
janice
juliet
johann
joanna
jeanne
jumped
jailed
jolted
juarez
johnny
jerked
jimmie
jeremy
joshua
jacobs
dating
daemon
drills
dishes
dodged
dudley
drying
derive
deeply
downed
denial
defend
device
donors
denise
during
demise
distal
defect
dumont
dental
damian
dismay
dinamo
drains
draped
depart
dollar
denied
divert
dwarfs
darker
dillon
dennis
denies
daphne
deadly
devout
dipped
drawer
dieter
doping
durban
dances
dramas
defeat
depict
driver
dallas
dinner
darius
dorset
declan
danger
dmitry
dundee
desire
debbie
domino
decade
deacon
debris
drafts
durham
define
deaths
delays
diablo
drinks
dubbed
diesel
dumped
dorian
dobson
demand
darted
dynamo
decide
danzig
damned
disney
debuts
dorsal
daniel
ducked
doubts
dragon
detect
dunlop
darryl
dashed
dutton
dancer
detail
degree
digits
damage
double
donkey
danube
dustin
decent
darkly
drones
dreams
desert
dunbar
darren
deluxe
depths
deemed
dorsey
divine
design
dawned
duties
dagger
diving
deeper
devlin
deputy
denote
donate
dialed
deploy
danced
digger
devoid
duluth
damien
danish
decree
dotted
digest
dharma
daring
decker
demons
dupont
dayton
dwight
dawson
doomed
divide
debate
dakota
dammit
dubois
docked
dexter
direct
duncan
drives
dining
differ
dealer
denver
davies
driven
divers
dozens
doctor
devote
donald
dublin
denton
donnie
draper
devils
depend
darwin
dalton
discus
domain
dmitri
paused
punjab
patron
pastry
poised
pumped
purely
pieces
parade
puppet
proven
persia
prayed
parted
pacing
peters
prices
polish
pixels
photos
pursue
proper
ponder
panama
psyche
pastor
powell
panted
phased
priest
people
pounds
phones
pinyin
padded
profit
pascal
parked
pearce
pianos
plight
peyton
potion
polled
peered
papacy
pirate
prefix
planet
pulses
passed
proved
plasma
parrot
picnic
paving
prompt
payton
pantry
peanut
punish
piazza
pueblo
policy
petals
porter
phases
poland
pillow
penned
phoebe
pulled
portal
phrase
pillar
pigeon
parole
plural
philip
peaked
palmer
peeled
pushed
pistol
preach
piston
prasad
posing
plants
prizes
patrol
postal
purity
patton
paints
paired
pearls
plague
picket
places
pursed
parody
please
pilots
pissed
pickup
parcel
posted
prayer
poorly
puzzle
potent
perrin
paxton
pandit
planck
pushes
peeked
prague
poetic
plenty
premio
pointe
plates
pierce
popped
putnam
peking
potato
purple
pupils
pinned
padres
purdue
paying
praise
played
pieter
packed
pulpit
psycho
patent
prints
pocket
pulsed
piracy
poorer
prefer
polite
pitted
prized
palace
planes
pagoda
podium
parish
proves
poured
placed
panzer
parent
petrol
proton
pretty
pauses
pollen
police
pardon
poking
pencil
poetry
ported
person
panels
primal
powder
points
palais
potter
parlor
pledge
puddle
poster
pepper
psalms
packet
picked
pamela
parker
passes
prison
powers
pseudo
period
plunge
papers
patted
prince
plaque
puerto
plains
poznan
phelps
python
pietro
paddle
penang
permit
photon
pained
petite
priced
parana
pierre
player
partly
public
puebla
priory
poison
knocks
kendra
killed
koppen
kepler
knight
kelsey
killer
keenan
keynes
kindly
kerman
kernel
kaplan
konrad
kuwait
kelley
kramer
kelvin
khalid
kazakh
kerala
keeper
kitten
kenyan
knicks
kosovo
kicker
kassel
kissed
kapoor
kinase
kruger
kenton
knives
keller
kellan
kaiser
kisses
kettle
karate
kansas
khyber
kicked
kyushu
korean
kidney
kidnap
krakow
riddle
radius
rogers
rookie
resume
remake
raging
reggie
risked
resort
rocked
radial
runoff
remind
rushed
ritter
recoil
return
regina
robbed
rubber
regain
rental
ridden
ronnie
ribbon
rovers
romani
racism
reared
rabbit
relics
regent
radios
rafael
rivera
reject
richly
rocker
replay
ransom
richer
racing
rooted
rourke
rounds
region
regime
ranger
rumors
ripple
ramsay
ravine
rising
robust
rudolf
reagan
rivals
rainer
rotary
realms
raider
reused
rejoin
review
recent
revolt
ronald
reader
roster
rebels
rating
remain
ripley
remade
runway
rescue
roland
ruling
reside
robbie
rodney
relate
royale
ravens
rubble
rumble
rustic
rashid
runner
repeat
routes
raises
robber
repeal
revive
relied
riches
recall
report
rupert
ranged
rained
racist
reborn
rasped
rubbed
romans
reeves
repair
racers
record
reaper
rhythm
relief
romano
ritual
robots
rector
regret
rancho
recipe
reckon
rotten
rabbis
rhodes
rotate
rivers
roofed
riders
relies
resign
ridley
rudder
rwanda
roller
retire
ruined
racial
random
retail
reduce
reigns
rhymes
royals
rented
reward
ramsey
reason
result
reacts
ragged
rowing
rooney
romero
rammed
rugged
remove
reform
rushes
regard
rachel
rigged
rights
robert
rankin
reflex
rosary
rapids
rolled
rahman
refers
render
resist
rifles
rested
riding
romney
refuge
retain
rattle
richie
ranked
ridges
remote
reveal
rocket
recess
remark
ranges
raised
ratios
rulers
raided
reuben
roared
ripped
remedy
russia
routed
rapper
reilly
reggae
rather
really
refuse
rarely
robson
esteem
erased
editor
eroded
equals
enable
espana
exiled
emails
energy
engine
etched
expect
edible
eileen
eighth
enroll
ensure
expose
escort
either
extent
effort
edmond
elliot
etudes
elijah
eighty
elbows
europa
esther
easier
extend
edward
ernest
exceed
estate
expand
elaine
ethics
endure
enjoys
ensued
embryo
eduard
emmett
enough
exotic
effect
earned
easily
erotic
entity
easton
easing
exists
ending
essays
elders
easter
elites
escape
evenly
exempt
extras
evelyn
emilio
errors
enzyme
enters
elects
equity
edited
exeter
excess
embark
exited
entire
eldest
europe
eating
except
emilia
enigma
eureka
employ
enamel
expert
ethnic
eagles
emblem
extant
encore
excuse
echoed
export
engage
edmund
emerge
enrico
edison
events
enlist
empire
echoes
exiles
eyeing
eleven
exodus
eugene
evolve
ensign
glossy
grande
gilded
graeme
galway
gotham
greene
grille
glider
guzman
guests
garden
gibson
growls
gulped
genius
grange
grains
grassy
gregor
galaxy
golden
grades
guided
gospel
glazed
glared
gerald
giggle
gasped
goblin
gunter
genres
gender
google
gorman
guides
ground
geneva
greeks
gifted
ghosts
gloves
greens
guerra
gothic
granny
gunner
gaelic
greasy
guyana
graded
garlic
gaming
guards
gundam
gables
german
gracie
gaines
grapes
gladys
glowed
gaston
gambia
govern
groove
golfer
gustav
gossip
grease
gemini
graham
greedy
gladly
growth
gloria
gordon
genera
garner
genome
glance
graphs
gazing
galley
greece
gaulle
graves
goethe
gotten
giving
gentry
gather
garcia
gideon
gilles
gained
gunnar
grazed
gaping
groves
gamble
geared
gallon
garion
groans
gentle
gently
grimly
grammy
guilty
grover
gravel
groups
garage
gurney
grimes
grants
guinea
gerard
guitar
ghetto
george
giants
guiana
gandhi
gunmen
glover
guerre
gareth
global
glands
glided
ginger
gerais
gdansk
gabled
vienna
voters
victim
vacant
vacuum
violin
venues
vivian
verify
vanity
victor
vikram
vertex
vinnie
voices
visual
vested
viktor
volume
viewer
vendor
vastly
vowels
versus
vulcan
varies
voyage
verona
vocals
virtue
voodoo
voiced
viable
valves
verity
violet
vortex
viking
virgil
vishnu
viewed
vaults
vector
vassal
verbal
vernon
vision
venice
vulgar
voting
verlag
vanish
velvet
villas
vessel
vuelta
vargas
valued
volley
virgin
vaughn
vidhan
varied
videos
verses
visits
values
valley
quotes
quiver
quaker
quartz
queens
quincy
quarry
quoted
quezon
quebec
zodiac
zurich
zoning
zambia
zipper
zombie
zenith
zagreb
xavier
xander
traps
thugs
teach
total
tumor
talon
terre
trail
tyres
throw
thong
troll
trend
tribe
tibet
tomas
tidal
thank
title
tends
tones
threw
trent
taxis
table
trips
trees
tools
topic
think
theme
tents
thumb
tight
tails
truth
their
terry
truss
taboo
turks
twice
tract
tense
tapes
tweed
tiles
tasha
tully
theta
teddy
truly
trout
torso
tuned
tough
tells
taken
talks
tommy
tiger
terra
tubes
texts
tango
taped
tammy
trunk
tesla
terms
twins
tudor
trump
texas
torah
toast
torch
tanya
toxin
temps
twigs
today
thigh
tyrol
tenth
tests
tease
takes
taxon
tying
tries
timmy
tears
touch
trade
teens
tiled
trans
teams
three
train
treat
timer
troop
thick
tonga
these
tunic
tired
tales
trois
token
taluk
towed
timor
thump
toxic
taste
truce
towns
tires
trial
tower
triad
teeth
third
tatar
those
tried
tyson
turns
tutor
tulsa
tokyo
thorn
tempo
titan
tonic
trams
tessa
tides
terri
trait
twist
turbo
tracy
timed
tours
tamil
trust
tasks
tufts
tread
tooth
theft
twain
trace
tobin
tanks
tunes
thief
tenor
toned
thing
types
trick
tally
there
track
turin
towel
titus
tatum
torre
typed
truck
times
tampa
trash
tunis
trier
taxes
tombs
tyler
olsen
obama
often
order
onion
ogden
oxide
onset
owner
otter
ollie
oscar
owned
otago
orbit
ounce
optic
overs
opium
ozone
organ
osman
ocean
outta
occur
offer
older
outer
orson
ortiz
orion
opera
osaka
opens
olive
owing
owens
omaha
olson
opted
oskar
oasis
orton
oddly
omega
ought
other
akira
adept
andre
abbey
akbar
assam
arbor
arjun
arena
adolf
asian
allie
allah
aired
andes
amore
armor
audio
armed
acton
annie
acute
aware
angie
algae
areas
adele
acres
aaron
argus
after
alton
align
aztec
aside
awful
apple
adult
adapt
ashby
ached
amour
asked
asean
alter
arabs
agent
arson
await
alvin
angus
album
agnes
aimed
avant
ascot
aback
apart
about
alike
ashes
alain
anand
ankle
abbas
arrow
alley
atoll
ahead
abbot
aiden
agile
ariel
anzac
amara
arden
amiga
aidan
alpha
atlas
alone
array
aston
arose
aryan
alice
anton
annex
acids
aisle
abyss
astor
amman
asher
atari
above
apron
azure
anita
aimee
anson
aroma
agree
arise
apply
avila
allen
alert
ample
aging
alexa
argue
amber
akron
ahmad
april
adopt
altar
alive
audit
admit
avoid
ashok
arias
alias
along
asahi
acted
awake
alien
award
astro
anwar
abdul
anglo
aloud
allow
again
alloy
awoke
actor
adams
aspen
added
amend
allan
avery
among
anger
agony
aires
annum
amino
ahmed
abuse
adler
alarm
angel
angry
adobe
anime
avail
attic
angle
asset
axial
atoms
aided
imply
irwin
items
ideal
intro
inter
ideas
irony
indie
index
islam
intra
isles
isaac
iqbal
image
issue
india
idaho
irish
ivory
inner
italy
inuit
intel
irina
idols
idiot
ionic
inlet
input
irene
indus
iraqi
icons
whore
warns
weeks
wasps
walsh
whose
words
wires
waldo
while
wheat
windy
white
woman
witty
woken
wanna
wendy
whale
waits
weigh
wiley
wylie
where
wards
whole
waste
which
wolff
write
wolfe
wives
weary
wound
water
weave
wrath
weird
works
width
wreck
wigan
weeds
wedge
weiss
would
weren
wally
woolf
winds
wakes
waved
wince
watch
wryly
witch
watts
willy
walks
wales
worse
wears
wagon
widen
worms
worth
wider
woven
wrist
waltz
wanda
worry
wilde
waves
weber
wrong
wages
worst
wings
wraps
world
welch
widow
wants
wiped
wharf
wired
walls
wills
wrote
wheel
wyatt
woods
wight
wells
women
woody
waist
welsh
wines
wayne
house
hobbs
hires
hobby
heidi
haley
heard
hitch
hedge
heinz
halls
hills
hymns
herbs
haiti
hasan
highs
horse
honda
horne
hands
hanna
honor
hurst
hades
homer
hotel
hydra
handy
hayes
hicks
hints
hurry
hamas
hasty
henri
honey
happy
https
haydn
hawke
heath
hines
hello
haunt
hunan
hindi
halle
hangs
heirs
heels
helen
huron
hunts
horns
hours
harsh
homme
haste
hopes
helps
hodge
herds
heron
helix
hardy
hawks
havoc
hired
hoped
heats
hilda
husky
hairs
hates
healy
hogan
homes
hairy
haute
hosts
hague
hides
haven
holly
henry
humor
hence
holds
havre
hagen
human
hindu
heavy
hiram
hilly
heads
hound
habit
harry
hated
humid
horst
hyper
hanoi
huang
hears
haifa
harta
hooks
hurts
hamid
holes
hydro
horde
henan
hesse
hatch
howie
heart
hazel
friar
fails
finch
fairs
freak
feels
flesh
fluid
field
floor
faces
faith
fifth
frail
finer
fauna
femme
favor
fully
firms
fries
flint
frame
fight
fence
fiery
faded
fetal
ferry
fated
feral
foxes
flank
fewer
frank
filly
froze
furry
fetch
feeds
fatty
focus
fears
fungi
fever
fangs
felix
flame
faced
facts
found
folly
fargo
fatal
first
famed
forte
fibre
fancy
fists
fixed
forms
flour
forty
foods
fjord
funds
freud
funky
flown
fling
fritz
fades
files
flyer
float
fired
frost
facto
flags
films
fitch
fruit
fours
flirt
flats
flick
frown
falls
fiona
fault
force
feast
fable
forth
foyer
flash
fried
front
forum
fiber
folks
fuzzy
fleet
focal
fresh
final
fares
fined
fires
frogs
fools
flaps
farms
flows
folds
forts
flynn
foley
flung
freed
flood
floyd
flush
flies
flair
ferns
forge
flees
filed
fifty
fabio
forks
faber
firth
fates
franz
faint
flaws
flare
fills
false
fanny
flute
fused
funny
flock
fairy
fraud
fines
faust
flora
finds
fuels
blogs
bjorn
bryan
brady
brown
brink
bronx
betty
brock
badge
birch
basel
bison
banks
boyer
blink
baron
blitz
burns
braid
basic
bauer
blaze
bafta
bowen
bulky
bites
bring
baton
bihar
beach
bowie
bands
brood
blues
bacon
broke
brest
bleak
barre
billy
bytes
barak
buses
bayer
boyle
baths
beech
boise
barns
burnt
baked
belts
bunny
bribe
brett
baden
begin
bikes
banco
burst
bleed
basin
belly
build
baker
brand
bombs
brick
basil
byrne
bumps
burke
bragg
bones
backs
bravo
blind
brien
bayou
bliss
blood
brisk
bluff
bench
begun
bingo
bride
benji
brian
brave
bully
break
buick
blond
bucks
bends
boost
burma
bible
bonus
brent
being
beats
blake
busch
buren
bills
bowls
basal
beale
black
bates
began
beans
bella
brant
bosch
betsy
borne
bloom
bubba
brake
based
beaux
beard
brows
boots
beast
benny
bread
brody
bound
blame
bryce
belle
board
beams
basis
blunt
blank
berth
breed
byron
butch
blade
blown
blair
blush
bangs
blows
buffy
boxes
buyer
blanc
bland
bouts
biker
bahia
boxed
bears
baird
bukit
brief
barry
brush
bared
bruno
beads
books
banjo
built
broad
bunch
bases
brook
buena
berry
boxer
beige
banda
beers
birth
birds
badly
becca
blend
bored
binds
braun
booth
brain
butte
brace
basha
block
bless
bells
bowed
bobby
broom
boone
blast
bulbs
boats
becky
boris
bulls
brawl
bitch
bolts
benin
bulge
buddy
bonds
brute
batch
bruce
brass
barge
budge
below
balls
##tre
##ord
##old
##unt
##cle
##was
##com
##una
##les
##run
##bet
##mel
##rgh
##hem
##ati
##hul
##eza
##las
##ink
##etz
##aba
##ada
##uze
##ere
##gie
##omy
##sie
##oki
##yin
##yah
##zak
##zes
##pac
##ish
##aro
##rys
##som
##oys
##cis
##pod
##eum
##ggy
##vat
##uid
##der
##ncy
##ppy
##kai
##min
##ige
##ary
##nce
##hal
##edd
##din
##ven
##hof
##ble
##dog
##fer
##ors
##ont
##lou
##sma
##sun
##vis
##yna
##rug
##ike
##ula
##rix
##ums
##zam
##ees
##ini
##ita
##log
##pit
##psy
##ton
##ets
##avs
##che
##bei
##eld
##gna
##ood
##rge
##eda
##pic
##aus
##hur
##ead
##rti
##ume
##iel
##yck
##gga
##bbs
##zel
##dur
##ran
##hed
##iad
##bon
##ply
##kic
##mic
##ska
##rco
##cco
##ore
##ose
##mma
##oro
##gny
##zzo
##sus
##ath
##rde
##zko
##dha
##wyn
##zhi
##aur
##rol
##tag
##vin
##rel
##ots
##key
##tis
##nin
##ves
##ign
##zen
##jon
##ami
##fly
##lav
##nda
##tem
##uti
##rle
##mpt
##thi
##mis
##eye
##rdi
##lge
##iae
##ush
##ony
##eau
##rew
##hei
##ast
##nic
##eno
##hos
##har
##nzo
##art
##sti
##nai
##awa
##rok
##yan
##sei
##eli
##oga
##isi
##ido
##nga
##emi
##oia
##rsk
##bri
##wal
##ays
##ude
##pol
##nza
##kra
##wny
##eux
##mir
##nov
##her
##pio
##ily
##bly
##ina
##ese
##son
##cin
##itt
##ffs
##jal
##oum
##dra
##tsa
##cus
##tya
##bow
##icz
##tam
##xie
##ouk
##rou
##sha
##haw
##kow
##pha
##bar
##xia
##ani
##anu
##fin
##dda
##kti
##dun
##emy
##row
##aby
##kis
##won
##jar
##cci
##zyn
##das
##oor
##ure
##nat
##yte
##umi
##tou
##eti
##ros
##zin
##tha
##och
##rzy
##say
##cia
##ral
##uri
##ong
##ogo
##elo
##imo
##phi
##sco
##nal
##met
##gio
##sms
##dae
##gal
##ois
##lby
##zzy
##oop
##dad
##igh
##iki
##ayo
##rst
##ues
##gat
##oss
##ier
##vyn
##can
##thy
##mit
##war
##hae
##nch
##dro
##mia
##lib
##lan
##tta
##jit
##ene
##lva
##lim
##yeh
##uer
##jos
##mme
##han
##vus
##kie
##cke
##aca
##rya
##ivo
##meo
##ell
##lab
##ify
##rda
##ski
##oic
##iso
##ori
##urg
##zcz
##sby
##rks
##nis
##tch
##yde
##lah
##dic
##sat
##dia
##ree
##ugh
##cos
##tes
##est
##iol
##edo
##vid
##rca
##nne
##zia
##pad
##eim
##yen
##zzi
##iya
##cas
##git
##lty
##nea
##yce
##lot
##lga
##iva
##kha
##app
##ame
##yas
##mba
##uve
##eve
##duk
##any
##rna
##ial
##ano
##tal
##pia
##abi
##ked
##sas
##ave
##oir
##tan
##dle
##dly
##eto
##jhl
##wad
##wai
##top
##oli
##ire
##oke
##bor
##mbo
##ndo
##hit
##sel
##cie
##lev
##gli
##sov
##leg
##gan
##yes
##act
##gor
##kov
##bil
##dah
##hea
##kes
##dos
##kos
##rod
##iba
##rem
##hor
##vah
##ode
##hay
##4th
##era
##ake
##kin
##osh
##bin
##yya
##hom
##ngo
##ici
##res
##pan
##nya
##ipe
##toy
##bas
##iam
##eer
##hil
##ako
##vik
##ols
##ais
##tek
##tma
##mbs
##obe
##ded
##qua
##bre
##pie
##esh
##ace
##bit
##zar
##hog
##dhi
##all
##nse
##lay
##lta
##lts
##dal
##raf
##uki
##bad
##uga
##gus
##ask
##sar
##eke
##rar
##tok
##ito
##nds
##oda
##cic
##bio
##ssi
##vor
##pot
##ica
##non
##ane
##idi
##ann
##cao
##ora
##law
##tat
##ife
##riz
##ama
##nge
##tom
##bbe
##aux
##gil
##rdy
##apa
##den
##zal
##rad
##ovo
##ity
##tus
##nes
##rio
##nna
##nay
##dar
##aan
##ved
##rae
##ype
##bee
##lly
##ppa
##sis
##ieu
##mum
##dus
##omp
##ffy
##chy
##lau
##nsk
##kur
##vez
##bau
##ddy
##had
##hee
##uis
##due
##vas
##tte
##rka
##nut
##fed
##may
##ump
##dya
##and
##ing
##lda
##ulf
##lik
##max
##out
##ham
##ack
##gol
##ram
##vie
##int
##que
##ega
##oot
##500
##gre
##box
##cki
##zed
##kka
##osa
##als
##tub
##sko
##rus
##vil
##zio
##cek
##ion
##oft
##lma
##bba
##roy
##chu
##yre
##hma
##jee
##bic
##rer
##ics
##cat
##nam
##mmy
##llo
##eme
##his
##oya
##ust
##rek
##ock
##uma
##ret
##lal
##ths
##poo
##yle
##aga
##ppe
##ich
##len
##nad
##hid
##eia
##ril
##uto
##per
##oge
##vey
##kim
##urn
##mbe
##eit
##rik
##vio
##ans
##tad
##ull
##cen
##ien
##tro
##sse
##tea
##dio
##num
##bid
##rly
##pen
##oka
##not
##nan
##rud
##rdo
##wil
##ook
##ide
##tti
##lle
##ana
##ili
##dit
##rra
##hin
##kee
##vna
##usa
##ool
##sor
##oux
##lar
##ych
##bra
##ota
##oto
##lco
##gam
##par
##tor
##ogy
##rag
##ams
##sen
##nah
##eal
##uel
##aco
##ger
##kei
##ald
##kit
##wes
##nor
##lun
##wan
##bie
##ema
##cel
##via
##aia
##ied
##tel
##ert
##rid
##nac
##dak
##8th
##ron
##cts
##ses
##kel
##pps
##mun
##uke
##uit
##tua
##ete
##jak
##cta
##lia
##sea
##tic
##ate
##gic
##rno
##tia
##yer
##ent
##gui
##nca
##owa
##ika
##nar
##hak
##bat
##lli
##ben
##ads
##aks
##ola
##ikh
##uld
##ima
##sau
##aya
##col
##oku
##ver
##cut
##kyu
##pal
##uta
##zic
##oco
##mar
##nko
##jia
##pse
##oat
##ida
##boy
##ung
##ape
##uda
##ulo
##put
##yra
##dez
##hat
##yst
##ars
##ess
##hue
##ept
##ght
##ted
##tto
##ain
##ago
##jas
##cca
##adt
##iji
##uca
##uil
##ris
##jou
##aha
##end
##use
##bby
##rgy
##cer
##mut
##ken
##pro
##nbc
##dis
##rom
##pre
##tec
##sey
##san
##eet
##ono
##how
##ley
##dna
##oof
##ick
##lez
##iti
##urt
##gun
##gin
##mad
##eon
##eki
##del
##ats
##rie
##lto
##olt
##des
##tos
##net
##led
##rky
##oza
##zek
##hes
##tin
##sit
##oon
##mei
##ena
##ect
##sir
##sty
##zle
##jah
##hot
##oja
##rke
##uge
##cht
##uce
##ort
##rga
##ech
##und
##dot
##ura
##bed
##uth
##oca
##eka
##lee
##uck
##yam
##iec
##sul
##ten
##ior
##ute
##sch
##oes
##nde
##dan
##mot
##yon
##rey
##cko
##uls
##bib
##pet
##aly
##sol
##oit
##ite
##hip
##ova
##eta
##nte
##ory
##por
##bay
##ndt
##sef
##ime
##oid
##kus
##lem
##let
##ies
##ove
##kon
##mie
##oni
##atz
##sho
##hen
##lce
##pon
##ela
##sam
##mes
##upt
##lok
##ces
##olf
##ase
##oms
##qui
##sil
##pid
##eak
##ray
##ssa
##pis
##mac
##age
##ark
##cal
##ieg
##lub
##its
##lea
##rse
##het
##nas
##lag
##rri
##uso
##eil
##lin
##200
##lio
##ras
##uts
##var
##sos
##ers
##phs
##iah
##utz
##omo
##chs
##our
##fia
##ffi
##ils
##zan
##rts
##hai
##rum
##zoo
##ney
##eca
##rip
##lka
##nia
##orn
##fus
##nee
##kle
##jan
##lie
##pta
##mps
##mur
##lip
##bey
##rac
##tov
##kas
##asa
##lux
##nel
##vic
##ava
##scu
##vre
##eur
##ise
##xon
##bir
##tum
##dee
##dev
##ced
##nae
##ile
##dim
##uss
##bal
##rit
##hui
##ibe
##mon
##kan
##ryl
##uet
##lai
##gai
##kat
##iny
##oll
##mos
##gue
##eni
##irs
##une
##ass
##loe
##cks
##eed
##unk
##gua
##lam
##lei
##pel
##nus
##hua
##igo
##tle
##ner
##ilo
##zon
##kor
##uka
##opa
##iri
##ero
##amp
##loh
##lum
##vac
##cot
##bry
##joy
##ail
##mas
##eva
##dom
##gos
##ive
##hol
##abe
##yse
##ker
##zee
##ith
##rot
##ery
##tri
##vao
##set
##cit
##ges
##gen
##gul
##coe
##jin
##akh
##gra
##hun
##vet
##udy
##iss
##ins
##ael
##ado
##rov
##aki
##car
##ias
##lom
##lor
##cre
##mer
##ags
##hab
##ein
##rro
##efe
##uno
##rva
##tly
##xed
##uni
##ett
##tow
##von
##hic
##elt
##7th
##sic
##fat
##shu
##nio
##fra
##hly
##vir
##ino
##ale
##sto
##ium
##esa
##mal
##nts
##ups
##eft
##ara
##oud
##ury
##jad
##tar
##ped
##gni
##hya
##ous
##men
##eem
##gne
##ely
##bus
##now
##nir
##ott
##rao
##yme
##yla
##nen
##azi
##een
##umb
##ops
##bel
##fen
##aka
##100
##hta
##yar
##tee
##rza
##oue
##tze
##yed
##rth
##ean
##ash
##ice
##rta
##die
##gel
##way
##lch
##ear
##gum
##bek
##iro
##ows
##mat
##iza
##ote
##off
##bha
##aer
##lid
##cor
##jun
##sal
##red
##nco
##ole
##kia
##ned
##org
##cho
##bes
##day
##lde
##ija
##lov
##uli
##ism
##yal
##hum
##oom
##sia
##dor
##ric
##cha
##ach
##rte
##ome
##rsa
##sop
##shi
##dav
##hia
##uin
##ios
##lls
##dai
##ods
##dou
##ard
##amy
##tra
##rut
##rds
##ggs
##him
##van
##oma
##nta
##wyl
##air
##uan
##hri
##ffe
##urs
##kou
##lic
##adi
##ule
##ang
##tur
##ons
##gly
##oso
##pur
##rmi
##rak
##ona
##hdi
##tip
##yev
##xin
##gle
##for
##tet
##inn
##cam
##tai
##rso
##dam
##owe
##ize
##jer
##ffa
##ual
##orf
##ost
##bai
##pts
##tiv
##neo
##yne
##hey
##yad
##cup
##pee
##ant
##try
##sin
##kir
##jet
##yat
##ope
##pop
##bos
##lth
##hoe
##hwa
##hre
##low
##pas
##ist
##rma
##uba
##ske
##ade
##ond
##lyn
##tyn
##hus
##ill
##lit
##alo
##rop
##eth
##val
##lus
##sai
##cky
##sky
##nig
##bia
##ler
##hir
##lho
##ata
##cea
##9th
##wed
##one
##bis
##gno
##nik
##hel
##oed
##eck
##isk
##osi
##don
##olo
##gur
##kal
##rai
##iff
##pes
##rce
##ato
##tsk
##aid
##nty
##agh
##ico
##ult
##con
##wer
##fle
##rah
##uro
##ian
##avi
##ahu
##eis
##lla
##dre
##zer
##sio
##hyl
##see
##aar
##zie
##rre
##uen
##uez
##kki
##sca
##ria
##nie
##sle
##ror
##chi
##wee
##ari
##nst
##els
##rin
##lat
##sum
##ter
##tsu
##oko
##kam
##ber
##lke
##win
##iom
##dge
##kla
##hmi
##mah
##smo
##wen
##oun
##rne
##ste
##ele
##iga
##gis
##aja
##nos
##6th
##acy
##vos
##gas
##bah
##has
##eus
##hon
##hop
##sur
##sts
##ban
##hli
##fan
##bag
##eng
##ulu
##ege
##lad
##rea
##bla
##uch
##nto
##zos
##tie
##wig
##kko
##ece
##los
##oth
##nti
##zog
##wei
##aru
##eri
##aea
##pin
##dek
##ahl
##rgo
##udi
##nka
##gau
##nni
##iii
##arm
##amo
##ala
##ine
##the
##isa
##ndi
##roi
##uru
##cio
##zza
##iac
##deh
##nem
##ind
##kot
##ful
##are
##ira
##sta
##rim
##asi
##med
##pus
##nob
##ila
##ede
##iko
##ple
##ser
##rup
##gia
##bot
##ids
##gon
##man
##400
##vel
##zow
##omi
##itz
##raz
##phy
##vot
##jic
##cap
##ius
##bro
##cey
##gut
##oin
##ety
##tas
##cum
##you
##ali
##aud
##gar
##rat
##imi
##sso
##tao
##hra
##ghi
##far
##kar
##ego
##rba
##att
##agi
##tty
##lis
##ged
##sed
##dry
##wat
##bol
##get
##xes
##raj
##ren
##zai
##gee
##lon
##rch
##own
##lak
##ens
##rry
##iot
##mus
##ern
##ryn
##fur
##ady
slain
sexes
swear
steer
savoy
sears
saves
socio
spins
spice
sedan
syria
shone
soyuz
snack
skier
scots
slung
swarm
sings
sacks
sleep
sugar
sabah
stack
shots
scale
souza
salty
shine
steak
stone
slang
siege
split
stall
shows
stops
snaps
shape
sonny
sasha
suits
sandy
sheen
scope
sally
sabha
slits
sends
solar
serra
snowy
silly
saudi
still
samba
slots
stiff
sunni
shiny
spans
shove
stool
steep
slide
socks
sound
slate
starr
slash
synod
slave
shade
steps
sperm
slips
stray
salsa
shaky
stern
shoot
stout
serie
sikhs
sammy
sober
store
satin
share
shout
sahib
soils
slack
shift
silas
salle
satan
smell
spell
serum
style
smoke
scent
steam
speed
slams
sport
songs
spark
smash
stake
spent
stunt
sucks
salts
shark
scare
skull
scowl
saber
spoil
sides
sleek
sewer
stink
sided
staff
saved
smart
shall
snort
seals
sheet
slept
susan
spare
salon
somme
shane
santo
spawn
spill
slick
sweat
sixth
seven
smyth
sadie
saint
sheep
smile
sweep
silva
sofia
seton
seats
slope
shave
sousa
sword
sweet
sykes
spire
swept
sized
sadly
sight
swing
skirt
stars
stade
salem
stump
shock
stair
scary
shawn
swore
stays
shake
shiva
sizes
scars
stint
snoop
storm
scout
siren
swami
ships
steal
spite
sudan
sindh
sunny
shirt
smack
sofie
stale
stock
sonia
singh
simon
scrub
since
syrup
seeks
sarah
spoon
sheds
saxon
sails
salad
sands
scarf
start
slump
south
souls
sutra
siena
shack
stung
shops
samoa
space
stony
skyla
shrug
sling
scans
steel
serge
scalp
scene
strap
stuff
serve
shire
salim
shell
snout
sachs
spots
sonar
shrub
sense
stats
stand
story
strip
spicy
slant
skate
seeds
shear
seize
solid
sigma
swans
sloop
stamp
snake
straw
shaft
sired
stark
sixty
smirk
sniff
stood
sheng
seine
stacy
snail
shady
spain
shaun
slade
scoop
sheer
skins
study
squid
speak
stalk
smith
stage
scott
slice
screw
snuck
sinks
stove
swell
swung
snarl
swift
shale
setup
stick
small
spoke
surge
smoky
swiss
shore
solve
sloan
squad
swirl
scrap
shoes
sorts
silky
suite
skies
spray
state
shook
shame
sorry
spear
sinai
spike
short
seoul
swamp
spend
sites
susie
stare
spurs
super
sting
sonic
stuck
sable
sauce
sneak
scuba
sighs
shelf
sabre
selma
stoke
stain
sells
stein
synth
shown
spies
steve
sharp
squat
stole
sworn
spine
skill
sited
santa
subsp
serbs
shang
sioux
solos
stems
signs
sonya
seems
slabs
safer
sales
scala
score
spade
young
youth
yusuf
yards
yemen
yukon
yells
yacht
yeast
yield
yours
yahoo
years
yates
norms
noted
naomi
notch
noses
nuevo
norma
noise
nolan
natal
naked
newly
niece
norte
novak
nasty
nanny
nadia
nikki
nixon
nelly
niall
ninja
nails
ninth
night
niger
needy
noble
notes
nylon
naacp
never
nokia
neill
norse
nepal
nazis
nouns
nehru
nunez
needs
nasal
nexus
notre
novel
nancy
nurse
nawab
niche
naval
nueva
newer
nosed
nobel
north
nicky
nedra
nigel
naive
nerve
names
nests
named
noisy
negro
necks
nodes
nagar
mango
marks
maybe
mount
merry
malls
magma
mound
maori
micro
meath
mommy
morse
moist
mohan
money
motif
marie
minsk
moore
medal
megan
manga
mario
madly
mateo
maple
might
minor
malay
milne
macon
monte
mandy
myers
march
mabel
meets
minds
marin
mitch
mused
moshe
moral
mines
moved
musik
merge
meade
model
molly
museo
mazda
mcgee
moran
maids
month
midst
madam
motor
match
metro
masks
mason
milan
mixer
miner
myths
metre
minas
maddy
marne
malta
myles
melee
maker
mafia
mural
miami
mixes
muddy
manly
metis
motel
maine
marge
maxim
marco
meyer
modes
motto
mummy
mater
malmo
munoz
messy
mates
marko
moods
meiji
moths
misty
mahal
maria
means
multi
mainz
mikey
mecca
mills
moody
mouth
males
mania
momma
moose
macau
musee
mirza
marsh
maris
mixed
mayer
munro
mined
moses
minus
meter
manor
makes
milos
music
major
marry
monks
metal
manny
marta
macro
muted
maize
missy
mimic
moons
monde
movie
mccoy
milky
mckay
marty
micah
mundo
magic
marek
mercy
merit
mouse
malik
moves
moans
moors
meant
mayor
magna
meals
media
mated
miles
monty
menon
union
users
until
ultra
units
unity
upset
utter
uttar
unfit
upton
urban
uncle
usher
using
under
upper
usage
urine
urged
usual
urges
unite
coded
chris
ceded
chefs
crate
clock
clyde
chang
choir
candi
chief
cooke
court
cecil
chest
cause
cruel
cyrus
crime
clubs
condo
caves
cabin
cycle
carly
colon
claws
crush
clive
count
chess
chunk
coven
clown
carts
chart
chili
cocoa
chase
cafes
cocky
caine
cerro
cured
camps
crawl
chaos
crisp
celia
clear
crook
china
cargo
coats
crore
comte
crept
clint
check
cello
cough
cents
croix
cisco
cindy
cites
cubic
codex
civil
clark
cater
costs
cowan
cones
croft
crazy
corps
crash
claus
cobra
carey
choke
cries
creep
cares
czech
canoe
crabs
codes
cards
cyril
charm
comes
canon
cited
cuffs
cadiz
curly
clair
cease
crewe
casts
cesar
catch
camel
cedar
clary
chick
cairo
clean
craft
colin
crops
cooks
crowe
clade
cyber
close
calls
creed
canal
curse
coral
crack
crane
combo
clues
coins
conor
cloak
champ
clasp
cohen
chose
cliff
clerk
clone
cloth
chill
chain
crows
chloe
ching
comic
curve
click
cache
cadet
coach
chung
climb
creek
chuck
cuban
curry
congo
cheat
cared
cores
chips
caste
couch
cigar
carol
chalk
candy
class
carlo
crowd
curls
corey
colts
clips
chant
cloud
color
craig
caden
cathy
chiba
cords
cover
chord
carla
coupe
chile
cells
crude
clube
crown
circa
clash
comet
carry
coast
crews
campo
crete
clare
civic
cream
cheng
cheap
cross
caleb
crank
claim
crust
clara
colby
chevy
cages
cameo
cheer
clans
cheek
child
crypt
cable
chong
clung
cried
conan
costa
conde
could
cakes
chico
crest
cases
chair
casey
lamps
lenny
lynne
lucia
leung
looks
lacks
larry
lydia
lacey
louie
leary
lords
lifts
libby
liter
linda
logic
leigh
liner
luisa
lenin
light
lives
levin
lined
lilly
loans
logos
local
lands
lyric
loser
leger
laura
lowry
later
leave
lance
lamar
leads
loads
linux
label
litre
lower
leone
lucan
loose
level
leafs
lange
loyal
lexie
likes
laden
liege
lover
lucas
libya
locke
leroy
laser
lough
loops
layne
lyman
layer
leans
latch
leith
lucky
louis
learn
lagos
labor
laced
lynch
locus
leaks
lunch
lease
loire
lanka
lakes
leeds
lloyd
liszt
links
lunar
lucha
lured
lever
lissa
liver
latin
lille
laird
loren
laugh
lopez
loses
lemon
leapt
ledge
legal
lotus
luigi
large
least
lewis
lines
lanes
lists
loved
ligue
liked
luzon
libel
libre
loves
lyons
lived
logan
limit
lungs
liang
lasts
lobes
limbs
laude
layla
luton
lions
lodge
locks
linen
leash
lying
lobby
laval
leaps
leach
leyte
lukas
lucie
juicy
james
jamie
jokes
jozef
jesse
jenks
japan
juris
jonny
juice
janet
jumps
joint
jihad
judas
jewel
joins
jenna
joked
jamal
jelly
jacob
jimmy
joker
johor
judah
jenny
jones
josef
joyah
jesus
julia
jonas
jules
jorge
julie
jonah
jared
joshi
jaime
jolly
jason
jeans
jiang
junta
joyce
johns
judge
jalan
jayne
jerry
jammu
josie
jakob
julio
johan
darcy
dread
demon
decca
dried
downs
derry
drugs
dubai
dwell
death
draws
duane
dress
denis
diner
ducks
doyle
drift
dazed
dante
donor
depth
depot
dover
dirty
decor
doubt
dylan
dying
danes
disco
dance
dairy
dwyer
dozen
daily
dewey
diego
drama
dough
damon
doesn
demos
denim
dream
devil
dixon
domes
duval
drain
drunk
dunne
duffy
delay
dinah
duets
doris
drury
darts
doing
devin
drank
delhi
david
dhabi
dolls
della
delta
deity
decay
drive
delle
drink
diary
diane
daddy
drone
dodge
daryl
dense
diana
dolly
donna
docks
digit
drops
durga
denny
dimly
davey
dixie
decks
ditch
drawn
dared
dutch
dusty
draft
dryly
dalai
darby
davis
derby
debra
devon
drill
diver
doors
dates
debut
deter
domed
dukes
dwarf
deals
dizzy
dhaka
dario
daisy
dummy
danny
drake
drove
disks
duran
debts
doses
drown
drums
dowry
derek
duchy
dunes
discs
deeds
dealt
dated
palma
pipes
panda
prick
party
perry
piled
paint
plaza
platt
petra
panel
perth
pains
ponds
panic
padre
prima
packs
proto
privy
pleas
power
plume
petit
patch
palms
poses
piece
peggy
plank
poets
pride
proxy
paler
padma
paddy
purse
poles
polka
putin
prior
papal
parry
piper
paris
proud
paolo
patty
peers
patna
parma
percy
patsy
perch
pupil
paved
press
parts
porto
ponce
plane
pluto
polly
parks
patel
plaid
proof
prime
prize
pagan
peter
pizza
pause
paper
purge
pratt
porte
puppy
polls
pools
penny
poker
prism
pearl
pound
poole
plump
place
price
phone
pavel
paste
prone
penis
poked
plays
probe
petty
pulse
psalm
puget
patti
point
photo
plots
pants
padua
paths
peaks
paige
ports
poems
picks
pulls
prank
punta
plate
pilot
piers
papua
paced
props
pixel
pills
pedro
pitch
piano
pines
porch
plato
pasha
phase
pablo
paula
patio
print
posed
plant
paulo
plush
promo
pinto
peach
polar
posts
posse
punch
paces
plain
pinch
payne
pages
plata
pouch
pepsi
plans
pussy
perez
peace
pasta
plead
penal
poppy
pairs
piles
prove
pious
pumps
pedal
prose
kabul
kenya
kirby
kelly
kyoto
keith
kiara
karen
knots
kylie
kinds
knelt
kevin
kuala
kinda
karel
kochi
khmer
kills
kerry
keane
karma
kitty
korea
keeps
kiran
kicks
kumar
kayla
kappa
kathy
karin
knees
kenny
knows
kings
kazan
kamen
klein
katie
kanye
knock
karim
kilda
kenji
kraft
kamal
knife
kunst
known
klaus
robes
raged
radio
radha
route
react
ruler
rogue
realm
roads
radar
ratio
randy
refit
revue
repay
rubin
rises
rotor
romeo
rhine
rails
reddy
ramos
rumor
razor
ropes
robin
renal
reece
robyn
rates
ruben
remix
rusty
raoul
ralph
roses
renee
rules
raked
ridge
ranks
refer
rosie
rapid
royce
russo
relay
reyes
rainy
rugby
rider
rowan
roach
rover
rhode
resin
ramon
reach
raven
rings
round
reeve
roger
ryder
rehab
ranch
rests
reese
rossi
roofs
ringo
rabbi
risen
ricky
rodeo
rufus
ramps
ruled
rally
regan
regis
rated
roman
renew
rower
range
rhone
raion
roots
rocks
rooms
ronin
riots
rhino
racer
rains
relax
rents
rayon
rohan
royal
ready
ruins
relic
robot
rigid
right
rican
rough
rocky
regal
runes
reins
racks
reset
races
reads
rhyme
rolls
reefs
river
rites
roast
risks
raped
raise
rouen
reign
reich
rebel
retro
roles
raced
rides
rouge
risky
raids
rosen
rural
roche
rouse
rival
riley
rocco
rifle
ronan
reply
ernie
emile
elgin
ecole
eater
erect
emily
eerie
ellie
ernst
enoch
elect
enemy
entry
ethan
ebook
eight
eased
essay
eugen
essex
elsie
ended
erwin
elias
eaten
event
enter
ebert
edwin
empty
edgar
ethel
elisa
extra
euros
ewing
elite
ellis
email
eagle
evade
equal
erase
edges
elves
epoch
eliza
enjoy
edged
exist
egypt
erich
excel
erica
ether
ellen
earle
elton
erika
elvis
eaton
ebony
exits
essen
exile
edith
eddie
elbow
exams
edict
envoy
earth
evans
emery
emory
elder
early
eliot
elise
elmer
exact
earls
every
elena
error
eager
gypsy
gleam
grape
gotta
guido
gangs
guest
greek
goran
grunt
guard
gabon
greed
gills
grabs
green
gazed
grill
glass
goals
guilt
grove
gmina
gates
gallo
gonna
garth
grams
galen
gamer
gnome
games
gemma
going
goats
gross
gough
globe
gibbs
gaius
grupo
genoa
grind
goofy
ganga
gamma
gazes
grave
gloss
ghost
gavin
glued
gains
greco
gupta
gloom
grade
gabby
giant
gaped
grins
gives
garry
groin
greta
ghent
grain
goods
grown
giles
gland
greet
glenn
genre
gases
grand
glory
grimm
genus
gomez
garde
gaunt
guide
grass
gears
grips
goose
geese
guild
groom
ghana
groan
grant
group
genes
girls
glove
glint
gable
great
gould
guess
grows
growl
guise
gorge
gauge
georg
grief
given
gasps
gifts
greer
gerry
grasp
glare
graph
geoff
grady
glide
genie
gruff
gregg
grace
1830s
1940s
1960s
1990s
1820s
1920s
1950s
1910s
1980s
1890s
1930s
100th
1800s
1880s
1870s
1850s
1970s
1840s
1860s
1900s
vogue
voted
vivid
vince
valet
viral
vimes
volga
volta
vitro
venue
venom
verse
value
vinci
visit
valor
viper
vicky
vichy
vomit
vicki
vamps
video
vedic
ville
vowed
valve
versa
virus
verbs
verdi
visas
verde
vegas
vicar
veins
verve
vista
venus
vocal
votes
valle
vance
volvo
vijay
vault
vapor
vague
vodka
vinyl
valid
vogel
vital
voter
vents
verge
voice
vidal
villa
vowel
viola
views
vines
vigor
2000s
2010s
queen
queer
quilt
quite
queue
quake
quota
quasi
qatar
qaeda
quest
quote
quinn
query
quiet
quran
quick
49ers
zebra
zhang
zones
zheng
xiang
tire
took
thud
tata
thru
tiny
tuck
toll
text
than
togo
tune
task
this
till
tech
theo
term
trip
tank
tons
trey
tile
toss
tomb
taxi
tops
tidy
tavi
tits
tent
they
ties
tess
taxa
tsar
twin
tied
then
team
tian
tran
tory
toad
tugs
toes
toby
thai
tear
tore
tell
tuba
taft
turk
tres
trio
thug
talk
thin
town
true
them
toro
tool
turf
tyne
tall
take
tong
tube
tail
troy
tide
thom
that
tara
told
tina
tony
toni
tung
tame
tram
taps
tack
type
tuna
tips
tang
tome
toys
trap
thou
tito
tree
tick
ting
tilt
time
torn
test
todd
taut
thor
tend
trek
tens
teen
tori
thee
turn
tyre
thus
tale
tier
trim
tags
tour
tray
tate
tone
tape
odin
open
oboe
owes
otis
oaks
ones
odor
okay
oder
ohio
owen
olaf
oval
odds
obey
otto
over
only
olga
oslo
oath
offs
oman
owls
oils
omar
once
owns
opus
ours
olds
oclc
onto
oven
oleg
outs
oral
owed
alla
aids
alec
alma
aunt
asks
arch
andy
afro
arid
abby
ache
alam
asha
axle
amin
avid
akin
amar
apes
aero
alps
axel
anna
apps
area
arms
aims
avon
axis
atop
abel
acre
ashe
able
ajax
ares
arun
acts
army
alta
aqua
amir
airs
alfa
away
also
apex
ages
alan
aden
aziz
amid
anne
atom
ames
axes
arya
aide
anal
arts
amor
alex
afar
aces
aren
aura
alba
aria
asia
arcs
aged
auto
alto
anti
amos
ally
aldo
audi
arab
adam
adds
anya
agra
ants
arte
aviv
acid
indy
isla
ipod
ivan
iran
iraq
isil
info
ipad
igor
iced
idle
isis
idea
ions
item
isbn
into
ives
indo
iain
icon
ieee
izzy
idol
iata
isle
iihf
iona
inca
iron
iaaf
icao
iucn
imam
iris
issn
iowa
inch
wren
word
went
ward
warp
writ
wong
whig
wood
wage
wynn
wake
with
wife
wang
wwii
wave
week
wise
watt
wade
warn
wary
well
wrap
wink
womb
wide
walk
wasn
wish
wind
wool
wait
webb
wnba
were
worm
west
wild
wall
woke
wins
weak
wasp
whom
want
wept
worn
warm
weed
ways
wars
wine
when
wire
will
wavy
weir
wadi
wipe
wing
wand
work
whip
wien
whoa
wore
walt
wash
wolf
weep
what
wear
wits
ware
hong
holy
hyde
home
hear
hair
hove
hana
herd
hulk
hate
hood
hash
help
hung
heir
hasn
huts
hill
hans
hart
half
hazy
hire
high
harm
hind
hour
hawk
hard
hike
hugh
hero
heap
hail
held
hide
halt
hale
have
hook
haul
hoop
hold
hell
heal
hymn
head
hoax
harp
http
hits
holt
hope
hugs
here
hips
hush
hays
huff
hose
hyun
hang
html
hull
hahn
hats
hadn
homo
hilt
herr
howl
hare
hers
hiss
hess
hank
heck
hunt
howe
hurt
helm
hand
horn
holm
heel
hari
hume
heat
hack
huey
haze
hall
hugo
host
haji
hole
hive
hara
haas
herb
hint
huge
halo
fred
funk
fuck
fine
fade
fiat
fest
fled
fins
foam
full
free
feud
form
flea
food
face
four
fund
feat
faso
finn
fair
foul
foil
feed
fury
font
flaw
fits
fife
fill
fifa
from
fran
feel
fell
farm
find
feng
fare
flop
fang
flew
fork
fans
fast
file
five
firm
fivb
fire
fake
fish
fiji
fuji
fame
fees
flat
fuss
fate
fist
flip
fitz
fray
faye
fide
frog
fuel
flee
fern
fold
fuse
fein
flap
fall
faux
flow
fond
fact
flux
flex
fear
fiba
foot
fore
fort
frey
felt
folk
film
fail
flag
ford
feet
fool
brig
bike
blog
bart
brad
bulb
bump
burr
bony
bree
bees
bars
baha
bert
bonn
bunk
babu
blue
bags
bids
brno
bite
burn
brit
bits
brew
bowl
bold
base
bets
baba
bern
buck
bond
bala
bane
beam
baku
blur
benz
beak
bare
brat
beef
boom
bias
been
bark
bram
bing
buys
bury
belt
barn
bush
bill
bows
butt
bell
bile
boer
best
bath
borg
bled
bore
babe
both
beds
bray
bros
bait
beat
bind
boot
bank
bard
bolt
boyd
book
bull
bust
brow
bred
bear
bahn
beck
busy
bail
bent
bout
bret
bain
body
bomb
blah
bloc
bend
bats
boon
beit
boys
bari
bugs
bays
bose
back
beer
bali
baja
bulk
boil
bono
bela
boat
barr
band
bryn
bodo
beau
ball
bois
baby
bang
buds
boar
beth
bass
bird
byte
bran
bean
bobo
boss
berg
beta
begs
buzz
boca
bald
burt
bach
bash
buff
bone
blow
blew
byrd
born
bien
##ji
##wi
##ec
##co
##we
##rm
##db
##90
##wo
##bu
##eh
##ms
##25
##pd
##du
##49
##nx
##id
##vc
##be
##nh
##wy
##hr
##pi
##oo
##bn
##22
##xi
##35
##ou
##as
##hs
##yo
##lc
##fk
##wr
##46
##jm
##26
##31
##np
##bh
##gb
##yd
##ct
##cd
##do
##ei
##mt
##dh
##lp
##na
##tr
##ns
##gr
##gi
##oa
##ya
##ta
##ae
##je
##47
##ra
##ky
##or
##lt
##wl
##yr
##tm
##ny
##eo
##ld
##sl
##iy
##zh
##if
##fs
##um
##ha
##nc
##rl
##60
##ad
##pg
##it
##iu
##kt
##38
##tz
##ek
##rs
##ix
##uo
##cp
##iz
##ej
##57
##ih
##ev
##ft
##ul
##ah
##va
##ud
##wd
##vr
##ab
##fo
##od
##ak
##ko
##pl
##qi
##ag
##yx
##ub
##ly
##48
##tl
##ti
##sp
##iv
##vo
##te
##nn
##fb
##af
##ao
##em
##yn
##fp
##mo
##pc
##hd
##86
##et
##pf
##rz
##51
##75
##im
##lz
##sf
##sz
##cr
##au
##52
##27
##cz
##42
##li
##hi
##14
##uy
##01
##wu
##ma
##hh
##vy
##ib
##ee
##pw
##bs
##an
##ty
##rf
##ch
##wn
##bc
##ht
##uf
##di
##37
##go
##ot
##fy
##45
##iq
##tf
##lf
##ug
##lb
##20
##56
##12
##ox
##zz
##ea
##aq
##ui
##rc
##jn
##ng
##tp
##tv
##un
##sy
##rp
##85
##18
##bo
##sb
##yk
##54
##yt
##ym
##nr
##ua
##le
##ce
##41
##bt
##58
##ph
##29
##qa
##yp
##bi
##fa
##13
##ay
##oc
##65
##50
##ke
##er
##my
##ff
##nb
##al
##ye
##rg
##uz
##la
##ys
##ck
##30
##pe
##qu
##oz
##ja
##up
##eu
##wk
##rd
##uk
##gs
##bf
##ew
##wa
##bb
##si
##po
##io
##he
##il
##sg
##ba
##zd
##nl
##pt
##fe
##ss
##hn
##za
##pm
##jo
##nz
##gp
##11
##pa
##ut
##re
##me
##sk
##33
##ca
##ik
##36
##ez
##ur
##ga
##am
##dr
##km
##ig
##ks
##ru
##vb
##28
##10
##eg
##vu
##19
##lr
##ni
##39
##0s
##ku
##ue
##uj
##th
##st
##nu
##ro
##ok
##ir
##fr
##ka
##hp
##16
##en
##ts
##ii
##aj
##17
##md
##cy
##xa
##ki
##sd
##kr
##ep
##zu
##dt
##lo
##hu
##tu
##ic
##ge
##ws
##ds
##eb
##ho
##gt
##to
##kh
##rk
##gf
##da
##df
##os
##wt
##ju
##vi
##rr
##bm
##zi
##gc
##cs
##uh
##ob
##ac
##44
##mx
##hy
##ls
##rt
##el
##hc
##sr
##hm
##su
##gl
##rh
##cb
##om
##us
##23
##br
##55
##aw
##dl
##ne
##tc
##jk
##ar
##oi
##dc
##cl
##ci
##59
##rb
##mu
##sc
##at
##yi
##sa
##ip
##ri
##gu
##80
##by
##fl
##de
##oy
##kk
##nk
##vs
##oh
##fu
##oj
##xx
##in
##op
##pu
##sh
##ex
##ll
##is
##ie
##on
##aa
##of
##pr
##ov
##ed
##ax
##py
##ia
##js
##hg
##xt
##vn
##ry
##rn
##pp
##yu
##lk
##ml
##ve
##oe
##53
##66
##ol
##mb
##cc
##a1
##gy
##ap
##uw
##uc
##dy
##lm
##mg
##es
##bl
##wg
##zo
##mp
##nd
##40
##cu
##32
##og
##fm
##xy
##no
##ps
##00
##3d
##se
##yl
##so
##lu
##mm
##nt
##fc
##ef
##15
##34
##ow
##fi
##gm
##az
##wc
##sw
##zy
##70
##ze
##mc
##dd
##av
##dm
##mi
##64
##ey
##gn
##ln
##hl
##tt
##ai
##vd
##43
##dp
##gh
##gg
##24
##21
##ij
##sm
##cm
##ux
same
sung
spit
soup
sync
says
shaw
spur
sikh
slim
shed
seam
solo
swim
shop
scan
sake
slam
save
sent
sins
stem
sick
step
sure
saxe
sped
suns
site
siam
slit
stay
sack
sour
sage
sigh
stat
some
sash
such
sans
suzy
sima
said
sums
shen
sara
shri
sees
sega
soon
spun
stil
sims
slab
soto
soho
spat
spin
sony
soul
spot
sore
styx
seat
seal
sane
spec
shit
sand
self
smug
shay
sale
star
slot
soda
snap
stew
sway
suez
suit
semi
sons
suck
seem
sofa
sunk
situ
size
shah
sham
seen
skye
swat
syed
sets
shin
swan
soft
shoe
saul
scar
slug
sort
shut
span
sami
sing
swam
sinn
shea
seas
slid
saga
slip
slap
sued
sock
seed
sits
seek
stab
send
shia
sign
sufi
stud
sire
show
sect
sang
safe
seth
swap
side
sail
silk
ship
salt
skip
sank
soap
slow
song
sato
sino
sous
stir
sexy
sant
sera
shot
sean
sumo
simi
sole
snow
sink
sept
stop
sold
skin
shan
serb
stan
sava
sell
surf
sobs
sven
soil
ymca
yell
yeah
yong
your
yang
yale
york
yank
yuri
ying
year
yard
yoko
yuki
yoon
yoga
yuan
yarn
yves
neal
ncaa
noon
noir
nano
need
nazi
nell
neon
name
nose
nina
nail
near
numb
naia
next
none
nine
nato
nets
noah
navy
nave
nuts
nova
newt
nude
nape
noun
nate
nuns
ngos
nico
neue
note
news
neck
nero
node
nadu
nana
nino
nope
novo
nest
nike
nick
novi
nods
noel
nora
nile
nasa
neat
nash
nice
nord
neil
nara
nair
nrhp
naga
ness
nils
null
norm
mace
memo
maru
mike
mona
marx
mess
menu
mars
mood
math
make
mark
mask
moss
moan
milo
mrna
mill
mine
mina
mass
mate
mage
mean
mani
myra
mojo
mild
mayo
mock
mira
move
miss
mont
midi
mole
mode
maze
mart
mets
mini
mast
mata
maps
must
meng
mora
mead
mari
muse
matt
musa
mold
minh
male
moat
maha
meet
mori
meat
mack
mind
meek
mall
mega
many
mimi
mein
mule
mann
maxi
marc
mesa
mats
monk
mare
main
mono
moon
mans
mort
muir
much
meal
more
mice
mika
mara
mint
mana
moth
metz
mute
mick
mane
maud
mist
mala
maui
mile
mach
maia
made
mere
macy
maya
milk
mali
ming
moor
myth
mary
maid
mesh
mons
meta
melt
mail
mama
most
ugly
urge
ussr
ucla
uses
umar
user
urdu
unto
unix
unit
utah
uber
used
undo
upon
uefa
usaf
carr
corn
cave
cove
cope
cade
clip
cole
cans
cora
choi
cody
coke
cast
club
cash
cock
cone
chip
coat
crap
cows
coco
cote
cmll
clit
chao
cook
chan
clad
call
cuff
casa
come
cale
cool
cubs
chef
cars
cher
claw
camp
como
cube
core
chen
crew
cary
cure
cuba
cebu
colt
cell
cake
crow
chun
cree
cape
clap
coop
came
coal
chad
cane
curl
cold
cong
comb
clan
cats
carl
copy
cute
cozy
coup
card
cory
cobb
cult
char
cork
coil
clue
cops
cain
chet
chew
coma
city
crab
corp
case
cafe
chow
cola
coca
chat
cuts
cara
curb
cage
caps
coin
cups
cord
clay
cass
care
calf
cent
cost
curt
code
copa
crop
calm
chop
carp
coli
chin
cues
capt
cart
cruz
cite
luca
liza
lack
liam
long
loop
lure
logo
laps
lois
lamb
lowe
laws
levy
loch
lyle
lied
luck
lads
leon
lori
lame
lava
lets
luce
luke
loki
lang
lead
lane
leah
lviv
lars
legs
limo
lost
liar
lose
lynx
lieu
leak
lime
lego
land
live
link
lobe
lore
lots
luis
last
lace
lexi
lung
lent
lacy
life
late
ling
leap
lend
lark
lina
lazy
lump
lena
lady
levi
liga
lund
lynn
lamp
load
lola
loco
like
lush
lila
lips
lust
look
lucy
leto
lift
lays
lake
lock
logs
lawn
list
less
lord
lana
lgbt
lone
limp
lulu
loaf
line
lass
lair
labs
lids
luna
lily
lick
lean
lara
limb
lies
lest
left
loan
lion
laid
loss
lens
love
lyon
lisa
lama
leaf
lear
lash
loud
lima
loft
laos
jaws
jolt
jose
judy
jeep
joey
jain
jace
jena
jump
jaya
june
jets
jody
junk
joao
jeff
jays
java
jade
jimi
jens
jobs
joan
juan
josh
just
jase
jack
john
july
jedi
jett
jerk
jing
jail
jana
jang
jean
joke
juno
judd
jews
judo
join
jars
jill
jian
jess
jake
jude
jock
joel
jazz
jane
jong
jung
jury
deed
deng
done
dali
duke
diaz
dick
dull
dirt
dose
dyed
dahl
dove
data
doom
desk
doha
dire
dale
date
days
drag
dogs
draw
debt
dome
down
dark
dane
dump
deaf
dish
drop
demo
dona
dept
dusk
duly
dans
deny
dell
dots
dawn
dani
dive
duff
damp
drug
drip
dent
dies
deal
damn
dock
dial
dogg
dion
dude
dorm
dail
diet
deck
dyke
drum
dino
dare
deux
doll
deep
dash
drew
dune
duct
dean
does
dual
duet
deer
dirk
doin
dead
died
dear
disk
dina
doug
dyer
dora
dice
dong
duty
dams
dime
dana
dust
dame
dart
dung
dunn
dumb
daze
didn
davy
door
ding
duck
deco
disc
dave
devi
diva
dvds
duel
dodd
daly
dade
demi
phil
pots
poke
pipe
pads
prop
pets
puff
palm
pace
pool
punt
paso
pawn
peek
pens
pest
post
pack
pete
pork
peas
puts
pali
plug
play
paid
pick
prep
pang
pose
pass
pain
peak
ping
pity
page
para
pill
piss
pere
prey
pune
port
pods
plea
pitt
pena
porn
pond
pale
plum
pisa
peat
pray
peer
pole
peng
pine
pins
pair
pigs
prof
polo
punk
pear
part
path
palo
pops
pump
poet
poll
prem
parc
peru
pope
poem
pont
plan
pile
pour
pike
push
paws
plus
pink
paul
pubs
peck
polk
prix
penn
poor
pits
pull
park
pmid
pays
pier
pulp
past
poly
prom
pure
pony
plot
puck
peel
pius
pact
papa
kemp
kirk
katz
kato
kite
kidd
kari
kali
khan
kata
kane
kick
kiev
kala
kung
knew
king
koln
kang
klan
knox
kara
kira
kill
kind
kong
knot
kaye
knit
kyle
kits
kiel
karl
kahn
keen
kate
kept
kris
kobe
kota
kent
kiss
kwan
know
knee
katy
kant
kade
keep
kerr
knob
kyiv
kern
kids
koch
kurt
keys
keel
riga
rann
remy
roma
rats
ruse
rode
rudy
roam
rice
raul
risk
rake
ravi
rosy
rafe
reed
rubs
rana
rear
rays
ryan
rica
rios
root
rene
room
rows
russ
reef
rink
race
reno
raju
rite
rose
rate
ruin
rhea
rico
rand
roar
roth
rich
reel
rags
ring
rush
ramp
raft
rowe
roll
runs
ride
rees
rent
rave
rank
rain
rope
rick
rani
rock
reds
rang
ross
ruiz
rail
rama
reid
road
rhys
roof
rosa
rely
rare
raja
reza
robb
rory
rude
riot
role
ripe
rudd
rise
real
raid
rest
rack
read
rage
rome
riff
ruby
rein
rams
rape
rods
rash
riaa
rita
rbis
[...]
